/**
  ******************************************************************************
  * @file    clf_rf_data_params.c
  * @author  AST Embedded Analytics Research Platform
  * @date    2025-12-17T00:10:41+0800
  * @brief   AI Tool Automatic Code Generator for Embedded NN computing
  ******************************************************************************
  * Copyright (c) 2025 STMicroelectronics.
  * All rights reserved.
  *
  * This software is licensed under terms that can be found in the LICENSE file
  * in the root directory of this software component.
  * If no LICENSE file comes with this software, it is provided AS-IS.
  ******************************************************************************
  */

#include "clf_rf_data_params.h"


/**  Activations Section  ****************************************************/
ai_handle g_clf_rf_activations_table[1 + 2] = {
  AI_HANDLE_PTR(AI_MAGIC_MARKER),
  AI_HANDLE_PTR(NULL),
  AI_HANDLE_PTR(AI_MAGIC_MARKER),
};




/**  Weights Section  ********************************************************/
AI_ALIGNED(32)
const ai_u64 s_clf_rf_weights_array_u64[21852] = {
  0x101010101010101U, 0x101010101010101U, 0x101010101010101U, 0x101010101010101U,
  0x101010101010101U, 0x101010101010101U, 0x101010101010101U, 0x101010101010101U,
  0x101010101010101U, 0x101010101010101U, 0x101010101010101U, 0x101010101010101U,
  0x701020501010101U, 0x60000000100U, 0x700000407000100U, 0x604000007000005U,
  0x300010200000000U, 0x7000405000001U, 0x7000705000600U, 0x40000U,
  0x2000000000601U, 0x205U, 0x200000005060000U, 0x103000000070003U,
  0x700040001000005U, 0x3030000U, 0x40500000000U, 0x6030005070002U,
  0x2000000030000U, 0x700030202000000U, 0x705050000000003U, 0x102000000U,
  0x30202040000U, 0x6000000000704U, 0x506000702030001U, 0x2U,
  0x502060201030000U, 0x700030106000007U, 0x3000000000200U, 0x4000700000006U,
  0x707030500000400U, 0x6050000000000U, 0x40006000004U, 0x6050006060507U,
  0x100050000U, 0x10603060300U, 0x5010707U, 0x400040502050000U,
  0x3000000000000U, 0x200040306000001U, 0x100000407U, 0x702030600000000U,
  0x506040000U, 0x100000001010500U, 0x50000U, 0x40000050000U,
  0x303010000000001U, 0x3060200000002U, 0x4000000000607U, 0x3050203060000U,
  0x1000600020004U, 0x3000100U, 0x3000400060100U, 0x200000006000000U,
  0x3030000070005U, 0x304000000U, 0x7000001U, 0x305000300000305U,
  0x604010004000300U, 0x201000102U, 0x6000000020006U, 0x600000007000500U,
  0x40000000300U, 0x20003000000U, 0x400000503000500U, 0x70605000200U,
  0x501000002000600U, 0x4000502000300U, 0x70001060002U, 0x206000100000000U,
  0x2050006000000U, 0x3000102U, 0x100000300030000U, 0x705000000U,
  0x3000400020005U, 0x200060506000003U, 0x504030000U, 0x204000006030001U,
  0x104000600000002U, 0x70000U, 0x3000201000105U, 0x700060000000006U,
  0x300010400000000U, 0x4000300010000U, 0x5070300060400U, 0x100000201000000U,
  0x107000007000003U, 0x2000000000507U, 0x2000002000405U, 0x4050606U,
  0x300U, 0x60602000700U, 0x700000000000503U, 0x303070405000000U,
  0x600000000010007U, 0x4U, 0x200050000030700U, 0x3060000000500U,
  0x7060400050400U, 0x700000000040700U, 0x7060000U, 0x104000000010007U,
  0x3000000070107U, 0x10503U, 0x700030103020000U, 0x200070600000500U,
  0x605000004U, 0x407000006U, 0x500000500010000U, 0x701040600070200U,
  0x60000040002U, 0x100000000030000U, 0x200070000000005U, 0x407000700U,
  0x500000000040006U, 0x1000300000300U, 0x500060404U, 0x700020403U,
  0x200000704000100U, 0x7000006000600U, 0x5000001020000U, 0x40700060000U,
  0x405000000U, 0x7000501U, 0x30207040302U, 0x7000001000200U,
  0x600000000050602U, 0x402000005000000U, 0x305040301020400U, 0x3000006000000U,
  0x700000305000002U, 0x4000000050000U, 0x304000000000202U, 0x706000000000007U,
  0x5000700000000U, 0x20005000700U, 0x506000600000100U, 0x5000005070000U,
  0x200070301000002U, 0x200000502000706U, 0x500000000000603U, 0x70000000700U,
  0x3000000000100U, 0x206030100000000U, 0x10006000200U, 0x700000600000507U,
  0x107000107000007U, 0x500U, 0x700010000010404U, 0x505070106020702U,
  0x602010000030003U, 0x1000600000007U, 0x70000030006U, 0x5020000070000U,
  0x0U, 0x200070500U, 0x400020400070000U, 0x200000000020000U,
  0x100040400030002U, 0x5050000000500U, 0x400000000020001U, 0x20000000501U,
  0x100000000050200U, 0x50500000302U, 0x703040006000200U, 0x4060000000600U,
  0x300030000000000U, 0x7000000050703U, 0x200000700050007U, 0x301000003000005U,
  0x6000200060005U, 0x1060000000002U, 0x7010000000004U, 0x5070400000005U,
  0x400070004U, 0x200060000000607U, 0x6020000000006U, 0x600040207U,
  0x400000007050000U, 0x5010000000600U, 0x5000000040404U, 0x700000000000006U,
  0x103050000000100U, 0x600000000000200U, 0x505000002U, 0x3060006U,
  0x500040600000600U, 0x100000003030700U, 0x504050000000600U, 0x604000503U,
  0x5000000000000U, 0x500030006000000U, 0x2060400U, 0x400000000000101U,
  0x700040607U, 0x301000000060400U, 0x7060002U, 0x600050000000703U,
  0x20000000400U, 0x704040600U, 0x5050007070303U, 0x6000000000002U,
  0x70400060003U, 0x7060100000002U, 0x5000700060000U, 0x700020601050000U,
  0x300000000000200U, 0x5070400000700U, 0x203000000040000U, 0x7070702060300U,
  0x400000000000705U, 0x5000200000005U, 0x106000002000004U, 0x302030304010500U,
  0x0U, 0x300070000U, 0x70704030304U, 0x50201U,
  0x1000004070000U, 0x10005000005U, 0x204010002U, 0x4000604000002U,
  0x60007030000U, 0x5020603U, 0x2040400000203U, 0x601030000U,
  0x60007020000U, 0x1000107000400U, 0x600050003000000U, 0x502060200000000U,
  0x707020000010000U, 0x7000000010200U, 0x500000005000001U, 0x701000000050406U,
  0x2030000000002U, 0x7010701000000U, 0x70500040405U, 0x400000000000007U,
  0x3000400000007U, 0x103010200U, 0x204U, 0x301000703030501U,
  0x6U, 0x5050000000200U, 0x105000600000000U, 0x600000600000003U,
  0x502060200000004U, 0x6000700000700U, 0x700060000000305U, 0x700020000000605U,
  0x10000000006U, 0x501000600000000U, 0x40600050200U, 0x600000000040200U,
  0x400000005000005U, 0x100000004000101U, 0x202000000000505U, 0x1000000000000U,
  0x20002000005U, 0x5050000000604U, 0x5000006000003U, 0x200000200070000U,
  0x305000005000205U, 0x403000003000100U, 0x70000000705U, 0x2000007000700U,
  0x6010000020300U, 0x4000000060300U, 0x300000004U, 0x7050301U,
  0x400010000020003U, 0x60000010003U, 0x300000700U, 0x30605U,
  0x105040005030500U, 0x2040603000000U, 0x406000000000000U, 0x7000000U,
  0x500050000060006U, 0x10000000203U, 0x402060000000400U, 0x4030007U,
  0x406000006070006U, 0x100000000050700U, 0x3070000000400U, 0x100050100U,
  0x604070005050700U, 0x3U, 0x40000000702U, 0x206000000030007U,
  0x7000200000001U, 0x3000000U, 0x30500000004U, 0x7060007000005U,
  0x400000000000501U, 0x40001000000U, 0x200010003000502U, 0x100000001030500U,
  0x500070200000701U, 0x10002000002U, 0x10404000300U, 0x50006000600U,
  0x600010000U, 0x504030003050104U, 0x700000400000000U, 0x4000005060000U,
  0x701000602000003U, 0x70003070600U, 0x103000000U, 0x3000000050104U,
  0x500000004050607U, 0x5010400000000U, 0x30000000004U, 0x3000702U,
  0x102000003000400U, 0x100050400U, 0x600020007000200U, 0x6030003000000U,
  0x5000000000003U, 0x300000006000500U, 0x300060200000001U, 0x1000101000000U,
  0x700070000U, 0x70005U, 0x602000503030300U, 0x300070000000000U,
  0x401040000030003U, 0x600000006000004U, 0x304030000000300U, 0x200000200000204U,
  0x6070000040500U, 0x705070200000000U, 0x607050000000200U, 0x500000100050000U,
  0x2010702040002U, 0x100060000000000U, 0x405000006000000U, 0x701000704000200U,
  0x30400000700U, 0x700000000000500U, 0x400030000000200U, 0x600050000000207U,
  0x201000000000000U, 0x6040000000002U, 0x307000007000000U, 0x704000600U,
  0x300050400000600U, 0x402000601000000U, 0x300040000000204U, 0x1020700000000U,
  0x10004000000U, 0x204000000000402U, 0x5000007U, 0x7010000030005U,
  0x30204020000U, 0x700000300000305U, 0x200000607000301U, 0x40000030002U,
  0x507000000000600U, 0x305020703000007U, 0x70000000000U, 0x200020006000706U,
  0x100060000000000U, 0x100000000030100U, 0x700000001000700U, 0x103010305000000U,
  0x70000000006U, 0x207050000U, 0x1000604070000U, 0x603070700000000U,
  0x3000006050307U, 0x500000000020007U, 0x200000100U, 0x3000000040304U,
  0x605000000070000U, 0x70006000202U, 0x304030000050007U, 0x4000005U,
  0x100050000000006U, 0x2050305050000U, 0x2060000010002U, 0x100000200U,
  0x700010001000700U, 0x2000000020000U, 0x2000707020000U, 0x7000202000000U,
  0x500030000000000U, 0x3000300050004U, 0x2000600U, 0x3000004040000U,
  0x100000200050400U, 0x20007000000U, 0x500010304000000U, 0x30006000200U,
  0x30002U, 0x403000007020400U, 0x105000000000007U, 0x706050000000000U,
  0x203000006U, 0x10000050002U, 0x4000402050206U, 0x30500010003U,
  0x3000200000000U, 0x3030100050400U, 0x400050000U, 0x500010000U,
  0x606040000060705U, 0x40006000000U, 0x200060006000001U, 0x60500000705U,
  0x200000405040200U, 0x4020005U, 0x500000400020005U, 0x200000505000200U,
  0x500000005U, 0x7000007040101U, 0x300010000020000U, 0x404000000070005U,
  0x700030200U, 0x5010700U, 0x2000007000300U, 0x20000000000U,
  0x6000400000200U, 0x300060706020000U, 0x504010000U, 0x700030600U,
  0x4000501070000U, 0x604000000000007U, 0x600050205U, 0x6000300000007U,
  0x305000303000005U, 0x6020002050000U, 0x7000501U, 0x707000007000300U,
  0x405040000000300U, 0x600040000000307U, 0x3000000U, 0x300020206050000U,
  0x105000006000600U, 0x70005000000U, 0x2070300U, 0x300050205000000U,
  0x700070000000500U, 0x504U, 0x500000003010606U, 0x6040000000401U,
  0x402040000000000U, 0x102000005U, 0x2000700040000U, 0x2000000000003U,
  0x30002050505U, 0x600000001U, 0x301010501000001U, 0x500030003020500U,
  0x50100U, 0x600040000020000U, 0x50000000300U, 0x705000000050100U,
  0x5040305U, 0x207010400U, 0x7010304000100U, 0x100050400000000U,
  0x702000305020000U, 0x500000000070500U, 0x3000600000001U, 0x301000007000100U,
  0x100000000000305U, 0x300000000030002U, 0x506010000040000U, 0x207000000U,
  0x5000000050003U, 0x100000005030006U, 0x2000503020502U, 0x500000000070007U,
  0x105000300000001U, 0x200000300000002U, 0x606030500000000U, 0x406000000070000U,
  0x300010400000100U, 0x200000000040000U, 0x206070100000700U, 0x40504000000U,
  0x4000700010600U, 0x400000003000000U, 0x207070000000600U, 0x301040002000000U,
  0x70003U, 0x600000300060000U, 0x4070002000700U, 0x50300000005U,
  0x200050600040004U, 0x105020000070000U, 0x20601000003U, 0x6000000000000U,
  0x10003000002U, 0x600020500040700U, 0x5070000070000U, 0x30203050000U,
  0x205060000U, 0x3000000060000U, 0x200000700000005U, 0x2010200000700U,
  0x60302070305U, 0x201000000000302U, 0x5060000000300U, 0x7070000U,
  0x200020007000705U, 0x40000070002U, 0x50206050000U, 0x400000000000000U,
  0x700000500030004U, 0x405000200U, 0x200040600U, 0x601020500000002U,
  0x706050205020200U, 0x700070000000000U, 0x100040000000000U, 0x40003U,
  0x706010000040002U, 0x400000000U, 0x6000006000700U, 0x100020500070602U,
  0x707050000000000U, 0x703000000U, 0x407020003000507U, 0x403000700010706U,
  0x300000500000500U, 0x500U, 0x50000000504U, 0x400040000000000U,
  0x10000000700U, 0x601000300010002U, 0x100000600000104U, 0x500000000U,
  0x1030603040206U, 0x300070202000000U, 0x104000000000007U, 0x60007000000U,
  0x102030600U, 0x70003050000U, 0x4070000U, 0x20002040704U,
  0x700040700000000U, 0x307000004020001U, 0x305000000U, 0x1000507000300U,
  0x602000000000000U, 0x705000003U, 0x400000000060300U, 0x1000401U,
  0x10007040500U, 0x4070300000700U, 0x400000000000705U, 0x1070204020503U,
  0x200000004020005U, 0x601000000000200U, 0x500020000000000U, 0x4020000000000U,
  0x704000000030000U, 0x306040000000100U, 0x405030000000005U, 0x401000000000100U,
  0x302000206U, 0x102070000000000U, 0x20003010305U, 0x7060000000500U,
  0x3030000U, 0x500000500050002U, 0x300000000000100U, 0x105000000030001U,
  0x300000000000300U, 0x700030007U, 0x6000003000400U, 0x501020000000004U,
  0x202040000070004U, 0x6000001030005U, 0x600000002000000U, 0x300020000070004U,
  0x600020006000400U, 0x606000000000700U, 0x200020101U, 0x200000001000000U,
  0x60107000502U, 0x600000001000304U, 0x105000100000500U, 0x102000000000000U,
  0x3050000000003U, 0x7070604060002U, 0x6000000U, 0x2000600010007U,
  0x3010501U, 0x60001000000U, 0x600000107000001U, 0x7000000000200U,
  0x5050600U, 0x400000204000400U, 0x1050500000200U, 0x2000004000001U,
  0x105000200070000U, 0x4000000000002U, 0x70206040000U, 0x604000000060003U,
  0x6000100000000U, 0x3000004000500U, 0x20002030000U, 0x302060705060000U,
  0x407000305000300U, 0x6000600000000U, 0x504000300000600U, 0x70100000004U,
  0x6010705000000U, 0x7000001000202U, 0x50305000000U, 0x7000200000700U,
  0x203030300020000U, 0x7000000060303U, 0x30000020003U, 0x103030000000000U,
  0x400000005000000U, 0x600000500000000U, 0x602040200000007U, 0x100000700U,
  0x602070000050006U, 0x10004U, 0x201030400000300U, 0x700050500030307U,
  0x7050500000000U, 0x60004000000U, 0x107050000000204U, 0x60400060000U,
  0x500000006020000U, 0x705000000070007U, 0x5000006U, 0x30004030407U,
  0x207000102000000U, 0x100000000040005U, 0x506000000020503U, 0x5000000060000U,
  0x4060000000006U, 0x4000500040000U, 0x504010000000000U, 0x600000000000200U,
  0x2000200030400U, 0x5000600070600U, 0x100050000010300U, 0x7000006000000U,
  0x200060006000003U, 0x200000000060000U, 0x606000000020105U, 0x507020006000000U,
  0x403U, 0x105050000000307U, 0x50403000007U, 0x7050300000000U,
  0x50000000007U, 0x400000004030000U, 0x607060001020400U, 0x1070203000000U,
  0x503060000030000U, 0x2060000000000U, 0x102040000U, 0x6000000040505U,
  0x400000000010100U, 0x100000100000700U, 0x30406000000U, 0x1020204U,
  0x300000000000001U, 0x502000504010000U, 0x300000000000706U, 0x700000201U,
  0x30007010400U, 0x603060003060000U, 0x30206000000U, 0x506060000000200U,
  0x600060000000100U, 0x4000301000007U, 0x407000001000004U, 0x200030000000004U,
  0x101040000000200U, 0x1040300U, 0x1000000000106U, 0x20000050002U,
  0x7060507020004U, 0x7030000000000U, 0x30003040000U, 0x500000002020500U,
  0x101070107U, 0x104000007000000U, 0x5070107000300U, 0x400000000040006U,
  0x503020000000400U, 0x300020004000000U, 0x703000000050600U, 0x7020305000000U,
  0x1070000000000U, 0x7000007000500U, 0x305000300020500U, 0x4060207U,
  0x7U, 0x1070100000000U, 0x100000000000002U, 0x100040006U,
  0x30407020104U, 0x600000005000200U, 0x40002060000U, 0x70000000000U,
  0x5000105040501U, 0x206000000050004U, 0x500000000U, 0x102000400U,
  0x6040006020000U, 0x4000006060507U, 0x500000000000000U, 0x302000000060007U,
  0x1000004000201U, 0x6000000000200U, 0x10600050000U, 0x200010602040000U,
  0x503030206U, 0x500000000000100U, 0x40003000000U, 0x30006070100U,
  0x30003060000U, 0x20700050500U, 0x7000100000005U, 0x700000002000300U,
  0x400000100060100U, 0x2000106030500U, 0x300000000000000U, 0x2020000000305U,
  0x200050004050000U, 0x200000000000500U, 0x30000050203U, 0x7000002020500U,
  0x10000010400U, 0x3070000050004U, 0x107070500010005U, 0x700000000030006U,
  0x401000000070000U, 0x2000000040600U, 0x2000100020007U, 0x502000005U,
  0x600000007000101U, 0x3010000000700U, 0x5000000030003U, 0x7000602000005U,
  0x40000050001U, 0x200030007050001U, 0x200000100000000U, 0x104030000000000U,
  0x603050000000200U, 0x403000006000000U, 0x20005000000U, 0x50606050006U,
  0x405000000010000U, 0x0U, 0x1000505070700U, 0x4020700050306U,
  0x600000207000000U, 0x1020000U, 0x7020000000000U, 0x701030100000000U,
  0x400000000000602U, 0x6060700000403U, 0x300030000000004U, 0x3000000010007U,
  0x2070004000004U, 0x201000000000507U, 0x4000500000506U, 0x20006020500U,
  0x400000000040006U, 0x302040006000000U, 0x20000U, 0x60201030400U,
  0x704000000000000U, 0x300040400020600U, 0x407000000050000U, 0x700000000000703U,
  0x502000005040307U, 0x4060000070000U, 0x50000000000U, 0x50000010607U,
  0x5050200000103U, 0x20303000000U, 0x200060603050000U, 0x70005U,
  0x100040001U, 0x60100050003U, 0x300000600040100U, 0x100020304010000U,
  0x400040200050003U, 0x3010400U, 0x505U, 0x300000000000307U,
  0x101050007010000U, 0x1000603000000U, 0x400040600000000U, 0x20002000000U,
  0x604000000070001U, 0x1000303U, 0x7000002000200U, 0x403060000000701U,
  0x304020601040000U, 0x105030004000300U, 0x200050000000000U, 0x100050000030000U,
  0x7010000000003U, 0x306060000000000U, 0x5000004000500U, 0x102040000030000U,
  0x40000U, 0x601060700U, 0x20005000000U, 0x3020402000502U,
  0x702060001U, 0x306000005000700U, 0x3070007000000U, 0x70600000002U,
  0x400020000U, 0x5020000000702U, 0x106070000U, 0x407000506000005U,
  0x30700000000U, 0x201000200000301U, 0x1030001U, 0x6000000030302U,
  0x203000001000200U, 0x705000000000007U, 0x40005U, 0x7060700070003U,
  0x0U, 0x6070005000204U, 0x5000501000403U, 0x40204000000U,
  0x100000700U, 0x60402000600U, 0x602000000030005U, 0x5020405000000U,
  0x300010000000000U, 0x700020100000400U, 0x5030000U, 0x600040000000503U,
  0x500050000000203U, 0x400000107000007U, 0x300040000U, 0x300000006030205U,
  0x20400U, 0x1000103040000U, 0x2040400000000U, 0x500000700000300U,
  0x704000000070500U, 0x605010200010502U, 0x6000002000500U, 0x4030600U,
  0x100000000010500U, 0x202050000000003U, 0x607060000000000U, 0x2000000020007U,
  0x400000003010202U, 0x4010300000000U, 0x5070000U, 0x1000004040403U,
  0x2060000000000U, 0x700000507010207U, 0x70300000003U, 0x6040305U,
  0x1030001020000U, 0x300020600050000U, 0x0U, 0x400000002000600U,
  0x500000407U, 0x400040000000100U, 0x402000005000300U, 0x4000705000006U,
  0x103000000000400U, 0x70000070502U, 0x300070000000004U, 0x5070300010000U,
  0x600010000020000U, 0x100000007050000U, 0x70004000300U, 0x7070007040003U,
  0x200070000U, 0x3000300000004U, 0x503070302060700U, 0x203000000U,
  0x5000001000500U, 0x207010700010600U, 0x4U, 0x205040603020000U,
  0x40300000100U, 0x6050005000000U, 0x50000000004U, 0x6000005000007U,
  0x100000207U, 0x205030006U, 0x1010007000700U, 0x2000006000007U,
  0x100020000000000U, 0x3070507040007U, 0x50000000000U, 0x200000502010100U,
  0x300070000000007U, 0x305000000060000U, 0x70500000001U, 0x5010000040005U,
  0x203020100000004U, 0x7000100000003U, 0x100070000000005U, 0x60007000000U,
  0x40005000200U, 0x70003010000U, 0x305050000000003U, 0x7000700000003U,
  0x700000500010000U, 0x402000501010000U, 0x3020600050200U, 0x5000400000000U,
  0x5030200000300U, 0x4000000060104U, 0x7040000000002U, 0x70001000002U,
  0x50000030002U, 0x105070000000307U, 0x307000400000300U, 0x2020007000700U,
  0x10000U, 0x701000005U, 0x503000005U, 0x304000007020205U,
  0x604000100000000U, 0x400000204040400U, 0x70000000503U, 0x400000000000007U,
  0x500000700U, 0x70204000001U, 0x60705U, 0x50000060004U,
  0x602030102U, 0x6000005000401U, 0x502010000000000U, 0x707U,
  0x603000000050006U, 0x7000500000500U, 0x2000003050200U, 0x60300050107U,
  0x4040200030000U, 0x606000000010000U, 0x500000000040006U, 0x300000007050400U,
  0x500000000000200U, 0x600070000060003U, 0x506040007010000U, 0x400010000000000U,
  0x302000002000100U, 0x305000707000007U, 0x2020007000006U, 0x7000000000003U,
  0x7000001U, 0x100000001000601U, 0x400000100070507U, 0x700000500000003U,
  0x300000700070000U, 0x70000020000U, 0x307020000000000U, 0x30203000204U,
  0x60000060200U, 0x5000500U, 0x300070000000606U, 0x500060401000000U,
  0x303050600000000U, 0x705000605U, 0x10007000000U, 0x300010006000005U,
  0x70200000305U, 0x50000000300U, 0x305040004020000U, 0x500000000040300U,
  0x7060600050000U, 0x3050000000007U, 0x507000607060000U, 0x10001U,
  0x5020102000000U, 0x7000000070400U, 0x2030005000305U, 0x6000000000001U,
  0x501000000U, 0x603070001U, 0x702050003U, 0x505050100000700U,
  0x10503000000U, 0x5000000U, 0x600020406050000U, 0x304030000000000U,
  0x70603U, 0x500020005020000U, 0x703000000000407U, 0x700000000010000U,
  0x403000000000700U, 0x600070403000200U, 0x200000000000000U, 0x200010000030004U,
  0x502050200000007U, 0x301050100000000U, 0x207000000U, 0x100040401010500U,
  0x50000030100U, 0x207070000040700U, 0x603050000000000U, 0x0U,
  0x50006000000U, 0x3010100U, 0x500060101050000U, 0x600000000070400U,
  0x6000707030500U, 0x700000000010003U, 0x40602U, 0x5000105020404U,
  0x3010702U, 0x2050000000007U, 0x70002000000U, 0x100000302U,
  0x100000500070000U, 0x705040000000200U, 0x30006U, 0x100010100030006U,
  0x701000000070000U, 0x300060006020203U, 0x700000600060600U, 0x300010000000200U,
  0x700000500000600U, 0x7040200U, 0x50000U, 0x3bbb6a323c7897f7U,
  0xbb3f484d3b11d5f2U, 0xbaa01cfe00000000U, 0x3a91f9adU, 0x39fb53da00000000U,
  0x0U, 0x3bd51aa000000000U, 0x3bce62b400000000U, 0x3be6929cU,
  0x3c614c5400000000U, 0x3bfc788f3bd81c85U, 0x3be41cf200000000U, 0x0U,
  0x3bf26cf03c0c9fb2U, 0x0U, 0x0U, 0x3d67c5a63d80c9a1U,
  0x3ce81cf83d1b6a74U, 0x3c9ae452U, 0x3c9bec593ce82825U, 0x3c89eeb6U,
  0x3c8917bdU, 0x3ca4fdd100000000U, 0x3cca515e00000000U, 0x3ca0953eU,
  0x3caf1417U, 0x0U, 0x3cd80963U, 0x3cf3f13aU,
  0x0U, 0x3cff4b703d2407acU, 0x3d29431900000000U, 0x0U,
  0x3d277253U, 0x3d2f58b43d2971e2U, 0x0U, 0x3d7d690700000000U,
  0x3d892e9700000000U, 0x0U, 0x3d8580123d8aac60U, 0x0U,
  0x3c611b5f00000000U, 0xba19ec313bc45261U, 0xbbb12ec2U, 0x0U,
  0x3c31ea933c42e2d2U, 0x3bc0268e3bdca737U, 0x3bc8006600000000U, 0x3b9f300a00000000U,
  0x3be3b9f300000000U, 0x0U, 0x3be1e2653c23c6acU, 0x3c241c6dU,
  0x0U, 0x0U, 0x3d1b46dd00000000U, 0x3c70c4883cd6bf93U,
  0x3ce8d6ea00000000U, 0x3c904454U, 0x3c79e82e3c9ffc47U, 0x3c93b1df00000000U,
  0x3c8902a2U, 0x0U, 0x3ca5b642U, 0x3cc4a02eU,
  0x3cdacd2cU, 0x0U, 0x3d8e979e00000000U, 0x3d1b69eb3d8c91f0U,
  0x3d0b5bef3d272d6bU, 0x3cdd59bbU, 0x0U, 0x3d5289a200000000U,
  0x3d3321653d3d7a08U, 0x0U, 0x3d80f38300000000U, 0x3d891576U,
  0x0U, 0x0U, 0x3bbb8d673c81c91dU, 0xbb7b6219bb60301fU,
  0x0U, 0xbacd504fba725c52U, 0x0U, 0x3c8538fe00000000U,
  0x3b9b4e6fU, 0x3bc87901U, 0x3c270ff33c418230U, 0x3bce62b4U,
  0x3bd689bb3bebb5bbU, 0x3beefe25U, 0x3c180671U, 0x0U,
  0x0U, 0x0U, 0x3d68370b3d5632ccU, 0x3cea4fce3d11b4ecU,
  0x3c85a8af3cd21fa6U, 0x3c8d8b8fU, 0x3cb9075400000000U, 0x3c93b1df3ccf66b0U,
  0x3ca0626500000000U, 0x3cb93b4200000000U, 0x0U, 0x0U,
  0x3cc9c141U, 0x3cdd4f4fU, 0x0U, 0x3d210179U,
  0x3d291000U, 0x3d4d999600000000U, 0x0U, 0x3d822e373d91f698U,
  0x3d6c41483d73c2a7U, 0x0U, 0x0U, 0x3c7897f700000000U,
  0xba6146b23bad5959U, 0xbbbd221fU, 0x3ba2387900000000U, 0x3ba8031300000000U,
  0x0U, 0x3c130c703c611768U, 0x3bb231c33bced336U, 0x3bc47e0500000000U,
  0x3bcc10b8U, 0x0U, 0x3c00bbcaU, 0x3c0d1d31U,
  0x0U, 0x3d072f4500000000U, 0x3ca2fef83ced67eaU, 0x3c92fc383c8677bfU,
  0x0U, 0x3c926dc93c9c5a0aU, 0x3c9512163ca540a6U, 0x0U,
  0x0U, 0x3cfb13d300000000U, 0x3cd2dadf3cd4eb90U, 0x3cb10cf83cca515eU,
  0x3cbe03b100000000U, 0x0U, 0x0U, 0x0U,
  0x3d03c148U, 0x3d269677U, 0x3d8ac83000000000U, 0x3d1ad1f03d8223d3U,
  0x3d80c9a100000000U, 0x3d2910003d5b6e32U, 0x3d7c824600000000U, 0x3d67ed11U,
  0x0U, 0x0U, 0x0U, 0x3c0080533c858a08U,
  0xbb961506bb5bf593U, 0x0U, 0x3ba238793c03e467U, 0xba3c1571b89b8a52U,
  0x0U, 0x3bbb146200000000U, 0x3becaede3bfba1e7U, 0x0U,
  0x3c1d025500000000U, 0x0U, 0x3c1b2f0b3c12151dU, 0x0U,
  0x3c9e8a4300000000U, 0x3c174cceU, 0x3c38902aU, 0x3c81c91d3c87e39cU,
  0x0U, 0x3c9f3143U, 0x0U, 0x3d0b212a3d228c66U,
  0x3c85b0e03c93b1dfU, 0x3c91769bU, 0x0U, 0x3cb91f5a3cd47f59U,
  0x3c9c1765U, 0x3cae41c23cae7905U, 0x0U, 0x0U,
  0x3cdb298dU, 0x0U, 0x3d81da9a3d8ac830U, 0x3d3e0fdc3d809fc3U,
  0x3d063b63U, 0x3d069747U, 0x3d111a85U, 0x3d1d65c8U,
  0x3d5530a4U, 0x3d81004900000000U, 0x3d5d8f3500000000U, 0x0U,
  0x0U, 0x3c80867c00000000U, 0x3acd74cc3bced336U, 0xbbbd221fU,
  0xbb79ca02U, 0x3bf59bd900000000U, 0x3bad2a6500000000U, 0x3c0188c8U,
  0x3bfc3e4200000000U, 0x3bbd8d4bU, 0x3be411b7U, 0x3be65b7000000000U,
  0x3bd1f68eU, 0x0U, 0x3c0c2cc03c18dca6U, 0x3bf8d9baU,
  0x0U, 0x3c497af5U, 0x3c4c4b3d3c4db7f2U, 0x0U,
  0x3d7c824600000000U, 0x3c8b340e3c85a8afU, 0x0U, 0x3c932522U,
  0x3c9c17653d3d2816U, 0x3ca2fef800000000U, 0x3cb5ef9800000000U, 0x3d2407ac00000000U,
  0x3cefc4653cf82232U, 0x3cc95a2c3cd47f59U, 0x3cca1e1c00000000U, 0x3cb4ac8bU,
  0x0U, 0x3cd5216bU, 0x3cf15c67U, 0x0U,
  0x3d0d69fdU, 0x3d1aa41b00000000U, 0x3d332f7f00000000U, 0x0U,
  0x3d8ac83000000000U, 0x3d68ce873da20213U, 0x3d8f66f300000000U, 0x3d83107600000000U,
  0x0U, 0x0U, 0x3bc9e00c3c960258U, 0xbbdb4a8aba6146b2U,
  0x0U, 0x3bbd28d500000000U, 0x3c00675000000000U, 0x3bf4a608U,
  0x3c0f9d1000000000U, 0x3c3888b200000000U, 0x3c78b6a500000000U, 0x3c4c180d3c4a62b8U,
  0x0U, 0x3c7a613000000000U, 0x3c8e039700000000U, 0x0U,
  0x3c8acafc3da3242cU, 0x3c93b1df00000000U, 0x3d110b4a00000000U, 0x3ce7fcba3cd5504fU,
  0x3c9afa1dU, 0x3cabe25fU, 0x3cc64cb73cbf69c0U, 0x3cad5f0700000000U,
  0x3cd501b5U, 0x0U, 0x0U, 0x3cebf723U,
  0x3cfc44fb3cdc4d01U, 0x0U, 0x3d1cfffd00000000U, 0x3d88c5a900000000U,
  0x3d4f07e8U, 0x3d701dab3d80c9a1U, 0x3d52322300000000U, 0x0U,
  0x0U, 0x3c85d4f800000000U, 0xba56f3e13bfe7c9bU, 0xbb96551aU,
  0x3bdcb59900000000U, 0x3be5c1ca00000000U, 0x3bbc3e7300000000U, 0x3bafdfe7U,
  0x0U, 0x3c198f3bU, 0x3c39cde6U, 0x3c2d7431U,
  0x3c748d6eU, 0x3c8aca7eU, 0x3d8ac83000000000U, 0x3c7838fa3c83e59bU,
  0x3c9c141700000000U, 0x0U, 0x3c8925d13c932522U, 0x3c85b988U,
  0x0U, 0x3cbd852fU, 0x3caee9c73ca8d7dcU, 0x0U,
  0x3cd022f93cc6f896U, 0x3cc3a495U, 0x0U, 0x3d2393633d02641fU,
  0x3d070d233cdc05b1U, 0x3cf92a1eU, 0x3ccbfe5fU, 0x0U,
  0x0U, 0x3d2386063d88b9adU, 0x3d67c5a600000000U, 0x3d10a832U,
  0x3d1b99d8U, 0x3d2e26d1U, 0x3d7c824600000000U, 0x3d6dfecc00000000U,
  0x3d7fd21900000000U, 0x0U, 0x0U, 0x3c0070583c816efbU,
  0xbb5c82833af9a151U, 0x0U, 0x3bd4a205U, 0x3babb2c1U,
  0x3bd28392U, 0x3c069ef400000000U, 0x3b9c68d2U, 0x3be912093c01b7c4U,
  0x3bcf89b5U, 0x0U, 0x3c492c3000000000U, 0x3bf8aee8U,
  0x3c840fa000000000U, 0x3c4c8dc3U, 0x3c8010c400000000U, 0x0U,
  0x3d2407ac3d7532d7U, 0x3c7897f73cd13a22U, 0x3ce8ce2d00000000U, 0x3c86579eU,
  0x3c978084U, 0x3c980ac43c9f3236U, 0x3c9dd4b300000000U, 0x0U,
  0x3cacd8d5U, 0x3cae41c23cbf69c0U, 0x3ca0b9cb3cb6fd22U, 0x0U,
  0x0U, 0x3cc30c7400000000U, 0x0U, 0x3cf339f6U,
  0x3d294319U, 0x3d21017900000000U, 0x3d80f38300000000U, 0x3d2d573d3d3e8ddeU,
  0x0U, 0x3d53912d3d52464bU, 0x0U, 0x0U,
  0x3d899a853db6e2beU, 0x0U, 0x3c7897f700000000U, 0x3b8470a13bb845f2U,
  0xba9fe30ab781e47bU, 0xbb33e107U, 0xbb5fe0f5U, 0x0U,
  0x3bb08b0f00000000U, 0x3ba5e8e8U, 0x3b78add100000000U, 0x3c078fd500000000U,
  0x0U, 0x3bdc62e03c9c6a9fU, 0x3bd1f4d0U, 0x3c130c7000000000U,
  0x3c4900f800000000U, 0x3c38902a00000000U, 0x0U, 0x3d8ab6ce00000000U,
  0x3c7dda11U, 0x3cdc05b13d1c21b6U, 0x3c888408U, 0x3c9563a73ca3afd1U,
  0x3c8a7712U, 0x3c9b408e00000000U, 0x3ca22295U, 0x0U,
  0x3cae79053cd15303U, 0x0U, 0x3ca47a033cc0b2cdU, 0x3cdc0beb00000000U,
  0x0U, 0x3cbe6cf2U, 0x3d070d23U, 0x0U,
  0x3d9296793d837dc2U, 0x3d2407ac3d210179U, 0x3d08a6b7U, 0x0U,
  0x3d2c035fU, 0x3d52dbe23d60a9e5U, 0x3d68370bU, 0x0U,
  0x0U, 0x0U, 0x3c00e8783c5edb03U, 0xbb1e7397ba9823f5U,
  0xbb33e10700000000U, 0xbaf9b67600000000U, 0x0U, 0x3b8340693bd70462U,
  0x3bc2c40b00000000U, 0x3ba5e8e8U, 0x3bba056100000000U, 0x3b924f69U,
  0x0U, 0x3bde6c1eU, 0x3c3083a800000000U, 0x3c108543U,
  0x0U, 0x3c9888633d8ed18fU, 0x3c9cea11U, 0x3c79400eU,
  0x3c93fec300000000U, 0x3d12249d00000000U, 0x3ceb0ce43cf00308U, 0x3cbda0db3cc0b2cdU,
  0x3c8eb0fb3cbd852fU, 0x3c996204U, 0x3c99cac6U, 0x3c9d1d7000000000U,
  0x3cb812c1U, 0x0U, 0x3ca94322U, 0x0U,
  0x3d0c5fdd00000000U, 0x3cd669f5U, 0x0U, 0x3d20e5b800000000U,
  0x3d4f6c2500000000U, 0x3d5bb8a600000000U, 0x3d6c509200000000U, 0x3d546a19U,
  0x0U, 0x3da202133d8acbaaU, 0x3d83097eU, 0x0U,
  0x3c78b6a500000000U, 0xbb5c82833adc0773U, 0x0U, 0x3bcb38daU,
  0x3bc804acU, 0x3bba2b0b3bf2d0b5U, 0x3bb2f893U, 0x3bacf645U,
  0x0U, 0x3c12a18e3c56245fU, 0x3c04c53aU, 0x3c142adcU,
  0x0U, 0x3da382a400000000U, 0x3cdc05b13d228c66U, 0x3c88bfc23cae7905U,
  0x3c96f3ec00000000U, 0x3c94f89e00000000U, 0x3caee9c700000000U, 0x3cd083ebU,
  0x3ca053e3U, 0x0U, 0x3cdb92ae3cd47f59U, 0x0U,
  0x3cd94079U, 0x0U, 0x3d272d6b3d1d5f64U, 0x3ce259f33d0afc12U,
  0x0U, 0x0U, 0x3d3d28163d7c8246U, 0x3d293fa4U,
  0x0U, 0x3d6b3c923da0597eU, 0x3d7fd21900000000U, 0x0U,
  0x0U, 0x3bfe7c9b3c5edb03U, 0xbb33e107ba725c52U, 0xbb749ba2bb63dc54U,
  0x0U, 0xbac29a4900000000U, 0x3a1387ae00000000U, 0x0U,
  0x3bb11f7aU, 0x3bd3ae473c06c6b2U, 0x3bc6726aU, 0x0U,
  0x3c1a396100000000U, 0x3c174cce00000000U, 0x3c3a2c8000000000U, 0x0U,
  0x3d5e51c73d80f383U, 0x3cdbe63c3d228c66U, 0x3cc94fea3cd322b3U, 0x3c89e8a73c93b1dfU,
  0x3c8b340e3c85a8afU, 0x0U, 0x3c80052400000000U, 0x0U,
  0x3c9c1765U, 0x3cb2e0d8U, 0x3cb4d30b00000000U, 0x3ca42ff9U,
  0x3ca3e1fa00000000U, 0x0U, 0x3cd930f4U, 0x0U,
  0x3d272d6b3d1b6993U, 0x3cff50623d11e207U, 0x0U, 0x0U,
  0x3d3944583d4d74d6U, 0x3d332165U, 0x0U, 0x0U,
  0x3d899a853d8ac830U, 0x0U, 0x3c9599c900000000U, 0x3aa480623c137aa8U,
  0xbbae58dfU, 0x3bb23c4000000000U, 0x3bbd8d4b00000000U, 0x3be6561800000000U,
  0x3bbd4eb9U, 0x3c027c3a00000000U, 0x0U, 0x3c42ad48U,
  0x3c3f27383c47e21eU, 0x0U, 0x3c5c7c0b3c669d47U, 0x0U,
  0x3c7897f7U, 0x3c905ea8U, 0x3da3242c00000000U, 0x3c83efe33d824864U,
  0x3d110b4a00000000U, 0x3c8a77123cea4fceU, 0x3cd3efd200000000U, 0x3ca36f5fU,
  0x3cb30d4a3cdb14bbU, 0x3c9d05a53c9c1765U, 0x0U, 0x0U,
  0x3cd9407900000000U, 0x3cea297600000000U, 0x0U, 0x3d21017900000000U,
  0x3d7c824600000000U, 0x3d558f023d65391eU, 0x0U, 0x3d8eff8800000000U,
  0x3d60fa2fU, 0x0U, 0x0U, 0x3bae752e3c809b21U,
  0xbbd9b283baee039eU, 0xbb5bf59300000000U, 0xbb12485300000000U, 0xba614e2f00000000U,
  0x0U, 0xbb0ac0443b8470a1U, 0x0U, 0x3b369fd2U,
  0x3bcc7ac600000000U, 0x3bb061aeU, 0x3c2f87b300000000U, 0x3c86ae313c21ff18U,
  0x3c01fc083bfb3a92U, 0x3bc6726a00000000U, 0x0U, 0x0U,
  0x0U, 0x3c816efb3d918b70U, 0x3c9cd98dU, 0x3c9bec3900000000U,
  0x3d899a8500000000U, 0x3d5b6e323d80f383U, 0x3d1d01983d4f4ab9U, 0x3cf01daa3d2390c5U,
  0x3c934d1e3cd4eb90U, 0x3c8bc42cU, 0x3c92511cU, 0x3cf1716300000000U,
  0x3c949a313cabe25fU, 0x3c8a7712U, 0x0U, 0x3ca87c51U,
  0x3cc8ca3dU, 0x3cc3fc8a3ccc32c5U, 0x3ca49d74U, 0x3ca3c8a600000000U,
  0x0U, 0x0U, 0x3cc0de86U, 0x3d12ce4000000000U,
  0x3ce71c86U, 0x0U, 0x0U, 0x0U,
  0x0U, 0x3c79400e00000000U, 0xba3c15713bb23c40U, 0xbbd75a16U,
  0x0U, 0x3bc0ba93U, 0x3c3bb2793c614c54U, 0x3bd3d64e3bf5a389U,
  0x3bbc89a300000000U, 0x0U, 0x3c0897eaU, 0x0U,
  0x3d80f38300000000U, 0x3c90f348U, 0x3d1b6a743d524624U, 0x3c95d22b3cdc691dU,
  0x3cb666d100000000U, 0x3ca9c00e00000000U, 0x3cb1c22cU, 0x3cd5504f00000000U,
  0x3cbdfa78U, 0x3cc95a2cU, 0x3cd322b3U, 0x0U,
  0x3d1b96f400000000U, 0x3d0457963d22d938U, 0x0U, 0x3d4f07e800000000U,
  0x0U, 0x3d8f151f00000000U, 0x3d854b79U, 0x0U,
  0x3bd4a2053c5d5860U, 0xbb1e7397bb046337U, 0x0U, 0xba5d90deb9889c57U,
  0x0U, 0x3bbb691d00000000U, 0x3b9226c000000000U, 0x3c0c2cc000000000U,
  0x3bcd3a423bfd0290U, 0x3bbfaad200000000U, 0x0U, 0x3c49eaac00000000U,
  0x3c12de593c2f1cabU, 0x0U, 0x0U, 0x3c572f8f3d3cd8f3U,
  0x3cc3791700000000U, 0x3c9211173c93b1dfU, 0x3c85a8afU, 0x0U,
  0x3ca0fb47U, 0x3cad5f07U, 0x3cc608cbU, 0x3cbf7004U,
  0x3d12c43800000000U, 0x3cd540deU, 0x3d15f3b300000000U, 0x0U,
  0x3d8233863da37371U, 0x3d3dbdeaU, 0x3d565c4cU, 0x3d6459f1U,
  0x3d6e0d02U, 0x3d854ed1U, 0x0U, 0x3c858a0800000000U,
  0xba56f3e13bd4a205U, 0xbbbd221fU, 0x0U, 0x3c0431473bfbad3eU,
  0x3bd315b9U, 0x3bbf3fb5U, 0x0U, 0x3be3b9f33c2f1cabU,
  0x3b96351cU, 0x3ba2dd3dU, 0x3bdc62e0U, 0x3bff7becU,
  0x0U, 0x3c6170793c65d08dU, 0x0U, 0x3c7aba2a3c9e21b3U,
  0x3c95ab3f00000000U, 0x3c8368a6U, 0x0U, 0x3d11b4ec00000000U,
  0x3ce828253cea74d8U, 0x3ca1bdd23c9fe2efU, 0x3ca60fd73c92fc90U, 0x3c85ba71U,
  0x0U, 0x0U, 0x3caadf6f3cbdea96U, 0x0U,
  0x3ccc13c900000000U, 0x3cde45f300000000U, 0x0U, 0x3da3242c00000000U,
  0x3d1a73abU, 0x3d3d826b3d4d74d6U, 0x3d291000U, 0x0U,
  0x3d8eff883d889aa8U, 0x3d6c18d0U, 0x0U, 0x0U,
  0x3bb0c1603c9599c9U, 0xbbd89b80ba3c1571U, 0x0U, 0x3c005a6500000000U,
  0x3c01e7db3bf59dd2U, 0x3bf81a4500000000U, 0x3c18c26fU, 0x0U,
  0x3be100a100000000U, 0x3c04d6f8U, 0x3c3a8efe00000000U, 0x3c1372afU,
  0x3c88aae700000000U, 0x3c661649U, 0x3c8aee843c83e597U, 0x0U,
  0x3c918ba500000000U, 0x3c84276500000000U, 0x0U, 0x3c85a1733d8ab6ceU,
  0x3caa932e00000000U, 0x3c8b0dc53cb50019U, 0x3c7ef27d3c811bf5U, 0x0U,
  0x3cbd852f00000000U, 0x3ca717f400000000U, 0x0U, 0x3cd5504f00000000U,
  0x3cd0be6b3cc925f5U, 0x3cca515e3cbdf096U, 0x3cb10cf83cd4f063U, 0x3c9ddbd7U,
  0x0U, 0x0U, 0x0U, 0x3d22c08400000000U,
  0x3cf1a8743cd6bf93U, 0x0U, 0x3d09b4c900000000U, 0x3d0709f400000000U,
  0x3d1aa41b00000000U, 0x3d4d32ad00000000U, 0x3d3e94a03d3df76dU, 0x0U,
  0x3da2021300000000U, 0x3d8e0ca33d921c16U, 0x0U, 0x0U,
  0x3c8e242100000000U, 0xbace18c13bb11f7aU, 0xba56f3e1badf5077U, 0xbbb84cd3U,
  0x0U, 0xba3cfc9d00000000U, 0x3a07b83bU, 0x0U,
  0x3bff5e013c1d30bcU, 0x3bcb8d7dU, 0x3be3b9f33bd326a3U, 0x0U,
  0x0U, 0x3be1f9263c339159U, 0x0U, 0x3c7897f73c9fe6a8U,
  0x3c3ab9483c4c21adU, 0x3c2fca5500000000U, 0x0U, 0x3c8ffe5d00000000U,
  0x0U, 0x3d8aa8e600000000U, 0x3c9b06c93ca316edU, 0x3c8a7712U,
  0x0U, 0x3d0713443d1b606cU, 0x3c9158623cbff22eU, 0x3cc589a100000000U,
  0x3cb7958a3cb65c6aU, 0x3cb2bba9U, 0x0U, 0x0U,
  0x3cc0cafcU, 0x3cd5ef6aU, 0x3ceea885U, 0x3d0c45363d072022U,
  0x0U, 0x3d135040U, 0x0U, 0x3d3e1e6b3d810049U,
  0x3d332f7fU, 0x0U, 0x3d6dfeccU, 0x3d7fa33dU,
  0x3d88d403U, 0x0U, 0x3bd4a2053c7ac2ccU, 0xbbd77722bae9b5eeU,
  0xbb40df1400000000U, 0xbaedcf2f00000000U, 0x0U, 0x34254000U,
  0x3bc9e00c00000000U, 0x3bcd3a4200000000U, 0x3ca34f4400000000U, 0x3bfb3a923c109123U,
  0x3bc34e79U, 0x0U, 0x3c2e32b6U, 0x0U,
  0x3c90becb3d06e4a5U, 0x3ce6ae4f00000000U, 0x3cb439ce3cc08e3eU, 0x3c931e863c9d25feU,
  0x3c8408f6U, 0x3c86019e3c9c05b5U, 0x0U, 0x0U,
  0x3cb7d22500000000U, 0x3cbc6e69U, 0x0U, 0x3cd47f59U,
  0x3cd94079U, 0x3ce51e6cU, 0x3d1447c700000000U, 0x0U,
  0x3d4532cc3d8ae087U, 0x3d88851500000000U, 0x3d652a4a3d921c16U, 0x3d5246243d560a46U,
  0x3d1a4e913d4f1b03U, 0x0U, 0x0U, 0x0U,
  0x0U, 0x3c881ba600000000U, 0xba6146b23b8470a1U, 0xbb997e45U,
  0x0U, 0x3bf9d38c3c09ed41U, 0x3beb23cd3be6751aU, 0x3b84d60f3b8537c2U,
  0x0U, 0x3bde33f63c14f195U, 0x3bb701a5U, 0x0U,
  0x0U, 0x0U, 0x3c1074723c4ae507U, 0x0U,
  0x3c8dd722U, 0x3c700145U, 0x3d91f91300000000U, 0x3c4fa1e63cd21989U,
  0x3cb88e0300000000U, 0x3c979e3fU, 0x3ca053b43cbd1e8eU, 0x3c98dc5fU,
  0x0U, 0x3cb248e5U, 0x3ca4edc700000000U, 0x3c9e8ffdU,
  0x3ca259c6U, 0x0U, 0x3cbea0823cc2fb05U, 0x3cbf519200000000U,
  0x0U, 0x3cebf2443d03b845U, 0x3ccb2e523cf26ae1U, 0x0U,
  0x0U, 0x3d1123aa3d1b69ebU, 0x0U, 0x3d3d6b4c3d4e0e92U,
  0x3d3e94a0U, 0x0U, 0x3d921c163d824864U, 0x3d6bc651U,
  0x0U, 0x0U, 0x3bb061ae3c5e7102U, 0xbbb60f0bba6146b2U,
  0x0U, 0x3bf1ac4b00000000U, 0x3bf9b73a3c80fb2eU, 0x3c0271e3U,
  0x3c155e13U, 0x0U, 0x3c45178300000000U, 0x3c0e04703c174cceU,
  0x3c07b65200000000U, 0x0U, 0x0U, 0x3c85d2453d8e9021U,
  0x3c835ef23c950dacU, 0x0U, 0x3ca765deU, 0x3cd3efd200000000U,
  0x3c8a77123c9ffc47U, 0x3ca139e400000000U, 0x3cab5146U, 0x0U,
  0x3cae609aU, 0x3cdba7e4U, 0x3cd9407900000000U, 0x3d22c08400000000U,
  0x3d6ad52200000000U, 0x3d07c9293d1d2e54U, 0x3d0be919U, 0x0U,
  0x3d42c28a3d80c692U, 0x3d3eb60cU, 0x0U, 0x3d81c59a00000000U,
  0x3d858f99U, 0x0U, 0x3ca5919900000000U, 0x3b0aa87e3bb11f7aU,
  0xbb33e107U, 0xb9e1e918b9889c57U, 0xbb46b6e0U, 0xbaca549abb0eef53U,
  0x0U, 0xbae183e6U, 0x0U, 0x0U,
  0x3c07958f3c9dc704U, 0x3bcc1b0bU, 0x3bfbad3eU, 0x3b9e3e17U,
  0x3be5ed82U, 0x3c94a48900000000U, 0x3c4c8dc33c82e318U, 0x3c0d1f6eU,
  0x0U, 0x3c878ba13c8962aeU, 0x0U, 0x0U,
  0x3d8f7c6a00000000U, 0x3cd940793d2407acU, 0x3cb5daba3cbe1477U, 0x3cd219893cae7a75U,
  0x3c948ac03cbdcd39U, 0x3c85f118U, 0x0U, 0x0U,
  0x0U, 0x3cda8e473ce7eb5cU, 0x0U, 0x3d0f25d500000000U,
  0x3d225a223cfcc8faU, 0x0U, 0x0U, 0x3d1d0198U,
  0x3d677bab3d52dbe2U, 0x3d2b8dadU, 0x0U, 0x3d6bc651U,
  0x3d8aac6000000000U, 0x3d839b33U, 0x0U, 0x3bcb59fc3c9b6894U,
  0xbba71099bb06d01bU, 0xbb3f644e00000000U, 0x0U, 0x3b8470a1U,
  0x3b369fd2U, 0x3baf440d3bc17a79U, 0x0U, 0x3c85d24500000000U,
  0x3bf9b73a3cb5a60dU, 0x3bd326a33c0f49f1U, 0x0U, 0x3c28138e00000000U,
  0x3c64a6e800000000U, 0x3c56cc93U, 0x3c8379ce00000000U, 0x3ca2884100000000U,
  0x0U, 0x3cb12b3900000000U, 0x0U, 0x3d1b46dd3d8aac60U,
  0x3c99bbae3d0b95e6U, 0x3cb3cfec00000000U, 0x3caa7f2cU, 0x3ca4edc73ca8af70U,
  0x0U, 0x3cc17caf00000000U, 0x3cc52a123cbabdc8U, 0x0U,
  0x3ccb033200000000U, 0x3cc5a03dU, 0x3cd9407900000000U, 0x0U,
  0x3d1b39a500000000U, 0x3d1dd2ad3d2407acU, 0x3d0942c900000000U, 0x0U,
  0x3d80b82600000000U, 0x3d2971e23d3e789fU, 0x0U, 0x3da2021300000000U,
  0x3d7503c53d80f383U, 0x0U, 0x0U, 0x3c881ba600000000U,
  0xba56f3e13bd93bc9U, 0xbbb72988U, 0x3bb933e100000000U, 0x3bbe4a5800000000U,
  0x0U, 0x3b9b4e6f3c0b448dU, 0x3bc0121a00000000U, 0x3c012d7000000000U,
  0x3bc6726aU, 0x3c1f155dU, 0x3c07cd3f00000000U, 0x0U,
  0x3c146e303c3a8efeU, 0x0U, 0x3c7f42c9U, 0x3c95ab3fU,
  0x3d80f38300000000U, 0x3c9635743c863e65U, 0x3c798daa00000000U, 0x0U,
  0x3c9336b23caa57b8U, 0x3cbc516200000000U, 0x3ca42ff900000000U, 0x0U,
  0x3ccc6aa43d38ebdaU, 0x3c91d6673cbdea96U, 0x0U, 0x3ca47a033ce878dbU,
  0x0U, 0x3cff5bd000000000U, 0x3cdae55d3cf339f6U, 0x0U,
  0x3d06b424U, 0x3d07134400000000U, 0x3d110b4aU, 0x3d45385500000000U,
  0x3d1df276U, 0x3d2bdbe300000000U, 0x3d1cf353U, 0x0U,
  0x3d4d74d6U, 0x3d5f3f22U, 0x3db6cc5200000000U, 0x3d8238c2U,
  0x0U, 0x3bd6c93d3ca5b101U, 0xbb4259c7b9889c57U, 0x3a877af400000000U,
  0x0U, 0x3bae752eU, 0x3bbfae3bU, 0x3c809b2100000000U,
  0x3bfeb9a73c3b7f29U, 0x3bf82ade3bf628adU, 0x3c00b93eU, 0x3bc4b69500000000U,
  0x0U, 0x3c029e6f00000000U, 0x0U, 0x3c4c6b80U,
  0x3cb04dcd00000000U, 0x3c85a1db3c8457f2U, 0x3c8ab8e8U, 0x0U,
  0x0U, 0x3cd5504f3d1b6a74U, 0x3c934d1e3cbe028bU, 0x3ca316ed00000000U,
  0x3cb2aba63c971538U, 0x0U, 0x3cb265f200000000U, 0x3cb10cf83caee9c7U,
  0x3cc58e4f3cada3a7U, 0x0U, 0x0U, 0x0U,
  0x3cc8da213cca4128U, 0x0U, 0x3cc0de8600000000U, 0x0U,
  0x3da194663db6d43eU, 0x3d09ae89U, 0x3d0d7cc5U, 0x3d1aa41b3d8ed18fU,
  0x3d530f1a00000000U, 0x3d3f62433d38ffdeU, 0x0U, 0x3d8e4abf00000000U,
  0x0U, 0x3d83813800000000U, 0x0U, 0x3c85a1db00000000U,
  0xba725c523bbb8d67U, 0xbb3dcd9aU, 0xbb50500eba957ab9U, 0x0U,
  0x0U, 0x3ba23879U, 0x3bca0e5f3bcd3a42U, 0x0U,
  0x3c0fa8f03c40a36eU, 0x3bf894d43c87a36fU, 0x3bc6726aU, 0x0U,
  0x3c4e4c4400000000U, 0x3c441edd00000000U, 0x0U, 0x3c65d6d33c9e8a43U,
  0x3c4e4a2bU, 0x3ca178a100000000U, 0x3c6faba8U, 0x3c9bec39U,
  0x0U, 0x3d7551a500000000U, 0x3c8e9df93caa57b8U, 0x3caadf6f00000000U,
  0x3c90d46f3c9bb92fU, 0x3c8f9b97U, 0x0U, 0x0U,
  0x3d01704a3d228c66U, 0x3ca5ade33cd32b3cU, 0x3cc43503U, 0x3cb1f51100000000U,
  0x0U, 0x3cd0929cU, 0x3cda588bU, 0x0U,
  0x3d10764e3d1d5f64U, 0x3d1b3429U, 0x0U, 0x3d7c82463d80f383U,
  0x3d4bfdaa3d413a9eU, 0x0U, 0x3d5d70f500000000U, 0x0U,
  0x3db6cc5200000000U, 0x3d83d61cU, 0x0U, 0x3c4182303c7830e8U,
  0xba6146b23c0ba768U, 0xbbb72988U, 0x3bb23c4000000000U, 0x3beaacbe00000000U,
  0x3bcec58aU, 0x3bd55bb63c0d4dccU, 0x0U, 0x0U,
  0x3bba19663c36a0f5U, 0x0U, 0x3c8abe5200000000U, 0x3c6de11800000000U,
  0x0U, 0x3c85b9883d8f0618U, 0x3c93b1df00000000U, 0x3cbe0afb00000000U,
  0x3cb439ce00000000U, 0x3cca515e00000000U, 0x3ccb92783ca849a7U, 0x0U,
  0x3d244d8800000000U, 0x3cbfc0293ce6929eU, 0x0U, 0x3cbea0823d11b4ecU,
  0x3cd3340000000000U, 0x3ce60479U, 0x3d09f54400000000U, 0x3d19c04000000000U,
  0x0U, 0x3d1b606c00000000U, 0x3d4d74d600000000U, 0x3d558f023d3d6b4cU,
  0x0U, 0x3d6dfecc00000000U, 0x3d81c3c300000000U, 0x3d88505f00000000U,
  0x0U, 0x3c96025800000000U, 0xba3c15713bd4a205U, 0xbbac0524U,
  0x0U, 0x3c6afef13c816efbU, 0x3babb2c13c130c70U, 0x3bfe5da100000000U,
  0x3bbd8d4b3beb23cdU, 0x0U, 0x0U, 0x3c2bc7b4U,
  0x3c49f18900000000U, 0x0U, 0x3c7d9a333c7a5946U, 0x0U,
  0x3c8a796bU, 0x3c8cbabfU, 0x3d8f151f00000000U, 0x3c82e40cU,
  0x3cd05e1b3d238606U, 0x3cbf51923ce82825U, 0x3c93b1df3cae7905U, 0x3c9ffc4700000000U,
  0x0U, 0x0U, 0x3ce7533f00000000U, 0x3d07ac34U,
  0x0U, 0x3d2407ac3d1b39a5U, 0x3d0e95b0U, 0x0U,
  0x3d2b3745U, 0x3d6dfecc3d885211U, 0x3d3d826b3d52dbe2U, 0x0U,
  0x3d7bf68900000000U, 0x0U, 0x0U, 0x3bd4a2053c81b0b0U,
  0xba466842b9889c57U, 0xbbbd221fU, 0x0U, 0x3bc9e00c00000000U,
  0x3c3bb27900000000U, 0x3bcd3a423bf78ef1U, 0x3be19b4f00000000U, 0x3bd6c6d900000000U,
  0x0U, 0x3c2e32b600000000U, 0x3c55732600000000U, 0x0U,
  0x3c9ae4523d80c9a1U, 0x3c938e9500000000U, 0x3c7897f7U, 0x3c8b28213c9ea94bU,
  0x0U, 0x3ca1bdd200000000U, 0x3c9fe2ef00000000U, 0x3cb74ad800000000U,
  0x3cc0cafc00000000U, 0x3ce98ef200000000U, 0x3cc7cba100000000U, 0x3d074aeb00000000U,
  0x3d1cc5503cebf244U, 0x3cdafc85U, 0x0U, 0x3d234c3aU,
  0x3d0be919U, 0x3d1aa41b00000000U, 0x3d2ec2ab00000000U, 0x3d648bb000000000U,
  0x3d52462400000000U, 0x3d78e27bU, 0x0U, 0x3d88c6b83d8f151fU,
  0x3d820ed000000000U, 0x0U, 0x3c82e31800000000U, 0xba56f3e13bd4a205U,
  0xbbe60f7bU, 0x0U, 0x3c38c2023c2e9436U, 0x3bfef4883bcc7ac6U,
  0x0U, 0x3bbd8d4bU, 0x3c1977383bfd2c22U, 0x0U,
  0x0U, 0x3d04278c00000000U, 0x3c9336b23ce7355dU, 0x3c9ec6263c863e65U,
  0x3c706faa3c94a489U, 0x0U, 0x0U, 0x3ca0626500000000U,
  0x3ca9432200000000U, 0x3ca5b642U, 0x3ca6c0b0U, 0x3ccc6aa400000000U,
  0x3cc9515a3cefc55eU, 0x3cb5a604U, 0x3ccadf1900000000U, 0x0U,
  0x3cdbdf0a00000000U, 0x3cd5dd4900000000U, 0x0U, 0x3d910d8800000000U,
  0x3d1b99d83d836057U, 0x3d12ad7a3d06a0a0U, 0x0U, 0x3d10b156U,
  0x3d4f07e800000000U, 0x3d529be800000000U, 0x3d3e80eaU, 0x3d7532d700000000U,
  0x3d6d3acfU, 0x0U, 0x0U, 0x3b8470a13c9af9ceU,
  0xbb4259c7bb0a8c95U, 0xbacdf3a600000000U, 0x0U, 0x3bc7c2c900000000U,
  0x3b78a53a3bb9e699U, 0x0U, 0x3bbd8d4bU, 0x3c1cfab9U,
  0x3c8508b200000000U, 0x3c5d58603c95fbe4U, 0x3c2733063c2e32b6U, 0x3c0865893bfa8664U,
  0x3bcab3fcU, 0x0U, 0x0U, 0x3c607a7500000000U,
  0x3c927ac800000000U, 0x0U, 0x3c90efe600000000U, 0x0U,
  0x3c9be3dc3d91ef41U, 0x3cac0e2100000000U, 0x3ccaea5300000000U, 0x3cefad9e3cc84c5cU,
  0x3ca22dda3cc930f2U, 0x3cab940e00000000U, 0x0U, 0x3ca326323cb131e3U,
  0x0U, 0x3cc5f9993cdb6b5fU, 0x0U, 0x0U,
  0x3cec28c100000000U, 0x3d11b4ec00000000U, 0x3cfb0d17U, 0x3d1b69eb00000000U,
  0x3d4d1ea100000000U, 0x3d3e94a03d41ae3cU, 0x0U, 0x3d69346b00000000U,
  0x3d7a9c8300000000U, 0x3da19e7d00000000U, 0x0U, 0x3c9599c900000000U,
  0xbb04a71d3bd4a205U, 0xbbd90f29U, 0x3a6b7f00U, 0xba5d51af00000000U,
  0x3a07b83bU, 0x0U, 0x3be6034a3be732d3U, 0x0U,
  0x3be5ed823c65d08dU, 0x3b96d3913c374bf9U, 0x3b945cd700000000U, 0x3bdc6dbeU,
  0x0U, 0x3c592fdd00000000U, 0x0U, 0x3c79400e3c927882U,
  0x3c8432ae00000000U, 0x0U, 0x3d921c1600000000U, 0x3c81a3ccU,
  0x3c9bb92f3cb3cfecU, 0x3c9780843c96c1c1U, 0x0U, 0x3ca3232a00000000U,
  0x3c9dd1be00000000U, 0x3cc4d02bU, 0x0U, 0x3cb666ec3cbf7004U,
  0x3ccbbb81U, 0x0U, 0x3cc378803d1a4979U, 0x3d0b95e600000000U,
  0x3ce56765U, 0x3cc90c193cf1e305U, 0x0U, 0x0U,
  0x3d0f5cfb3d3d6b4cU, 0x3d0308cbU, 0x3d1b6b6800000000U, 0x3d4ca31000000000U,
  0x0U, 0x3d52dbe2U, 0x3d60fa2fU, 0x3da3242c00000000U,
  0x3d893cf5U, 0x0U, 0x3b93428d3c5edb03U, 0xbb7b6219bb5bf593U,
  0x0U, 0xba56eda0b8935086U, 0x0U, 0x3bad4136U,
  0x3c3083a800000000U, 0x3bc9e00c3c21ff18U, 0x3bcd3a4200000000U, 0x3bc815f0U,
  0x3c16f2b000000000U, 0x3bd5bc27U, 0x3c1977383bfbfee7U, 0x3bff7bec00000000U,
  0x0U, 0x3bfd063c00000000U, 0x0U, 0x0U,
  0x3c83e59b3d7532d7U, 0x3c8c0900U, 0x3c93252200000000U, 0x3c9a310c3c867df7U,
  0x3c7423d73c8508b2U, 0x0U, 0x0U, 0x3ca07bbe00000000U,
  0x3d1b6a7400000000U, 0x3caf14173cea74d8U, 0x3cc0b2cd00000000U, 0x3cd47f5900000000U,
  0x3cdd5f5800000000U, 0x3cf339f600000000U, 0x0U, 0x3d09ae8900000000U,
  0x3d2407ac00000000U, 0x3d67ed1100000000U, 0x3d1b9059U, 0x3d4b96b3U,
  0x3d81004900000000U, 0x3d6c414800000000U, 0x3d92d1de00000000U, 0x0U,
  0x3d89b25c3db71a07U, 0x0U, 0x3c7897f700000000U, 0x3b0eafa43bd5368fU,
  0xbb86dddbba9fe30aU, 0xbbb27584U, 0x0U, 0x3bbe0a3600000000U,
  0x3c2b754700000000U, 0x0U, 0x3bfb3a923bfc0c8fU, 0x3bd3d64eU,
  0x3c1f07d8U, 0x0U, 0x3c11cbbe3c61b0e4U, 0x3bcad080U,
  0x3c0d1d31U, 0x0U, 0x3d8eff8800000000U, 0x3d0b92bf3d217298U,
  0x3ccb88aa3ce81cf8U, 0x3cb2a66a3cc9373dU, 0x3c6d48583c87d560U, 0x0U,
  0x3c932522U, 0x3ca07bbeU, 0x3cb788d7U, 0x0U,
  0x3cd9407900000000U, 0x3d1079c800000000U, 0x0U, 0x3d136ddbU,
  0x0U, 0x3d38ebda3d4d88e2U, 0x3d28d2c7U, 0x0U,
  0x3d60d194U, 0x3db6d43e00000000U, 0x3d899a85U, 0x0U,
  0x3bac0ad93c7897f7U, 0xbbdb4a8abb046337U, 0xbb93376300000000U, 0xbb4259c700000000U,
  0x0U, 0x3b8470a1U, 0x3ba331c6U, 0x3c42c08f00000000U,
  0x3bffa5963c0c8300U, 0x3bc15a15U, 0x3bd998eb3bcc9b12U, 0x0U,
  0x3bd5b19bU, 0x3bd2f4d5U, 0x0U, 0x3c63c01600000000U,
  0x3c9f06e700000000U, 0x0U, 0x3d1b9c283d529be8U, 0x3cd6bf933d04c5bfU,
  0x3cdb9f5d3cd47f59U, 0x3c90becbU, 0x3ca24700U, 0x3c94f89e3ccf89bcU,
  0x3c98decbU, 0x3cb56cf100000000U, 0x0U, 0x3ccbbb81U,
  0x0U, 0x3cf8abd100000000U, 0x3d1553d300000000U, 0x3d1a09d800000000U,
  0x3d047d4400000000U, 0x0U, 0x3d0f4d2aU, 0x3d641b4d00000000U,
  0x3d3ff056U, 0x0U, 0x3d88f62c3d8f0618U, 0x3d7489eeU,
  0x3d843a67U, 0x0U, 0x3c611b5f00000000U, 0xba6146b23bbbf3c8U,
  0xbbb12ec2U, 0x0U, 0x3bbf42933c5d5860U, 0x3c41823000000000U,
  0x3bc47e053c38f5f8U, 0x3b88e1d0U, 0x3bb82fc5U, 0x3bba0e28U,
  0x3be5ed82U, 0x3bd211b900000000U, 0x3c08612c00000000U, 0x0U,
  0x0U, 0x3d1b6a7400000000U, 0x3cbc9e043cd854c8U, 0x3c881ba63ccf89bcU,
  0x3c8a16deU, 0x3c9bb92f00000000U, 0x3c7ac2ccU, 0x3c98cd4dU,
  0x3ccba54c00000000U, 0x0U, 0x3cbea08200000000U, 0x3cdc29d200000000U,
  0x0U, 0x3cf339f6U, 0x3d918b7000000000U, 0x3d926f7b3d825d7cU,
  0x3d0c0c033d659b93U, 0x3d1115e900000000U, 0x3d1d019800000000U, 0x3d2b8dad00000000U,
  0x0U, 0x3d64eb41U, 0x3d5ff27bU, 0x0U,
  0x0U, 0x3bb7fed23c961043U, 0xbb961506bb5bf593U, 0x0U,
  0xbad94fed3b80141cU, 0xbac42a8bU, 0x0U, 0x3b43f8a3U,
  0x3bc523ab3ba7fbc8U, 0x3c22986300000000U, 0x0U, 0x3c7830e800000000U,
  0x3bcef64f3bed26a2U, 0x3bc36eeaU, 0x3be39fcd00000000U, 0x3c006818U,
  0x0U, 0x3c278ab5U, 0x3c38902aU, 0x3c99814200000000U,
  0x0U, 0x3d11b4ec3d8ab354U, 0x3cd47f593cd6bf93U, 0x3c8bba98U,
  0x3cd18f713cc24244U, 0x3c93b1dfU, 0x3cbe530bU, 0x3ca3a2313cb4d30bU,
  0x0U, 0x0U, 0x0U, 0x3d066fe4U,
  0x3cedb783U, 0x3d82bb4500000000U, 0x3d1b6b68U, 0x3d388a533d810049U,
  0x3d2bc8afU, 0x0U, 0x3d6b4a9cU, 0x3d72064fU,
  0x0U, 0x3c96025800000000U, 0xba0967f43bd9b46dU, 0xbbb72988U,
  0x0U, 0x3bcd437d3c7897f7U, 0x3bbf638eU, 0x3c0c9fb200000000U,
  0x3bbfaad23bc58c51U, 0x0U, 0x3c2f907800000000U, 0x3c2d743100000000U,
  0x0U, 0x3c9ae452U, 0x3d8ac83000000000U, 0x3c82e40c3da182fbU,
  0x3cac666300000000U, 0x3c8f1b723c96d264U, 0x0U, 0x3c90d82b3c9ede46U,
  0x0U, 0x3d11b4ec00000000U, 0x3ca82ce63cd854c8U, 0x3ca2e047U,
  0x3cd2318300000000U, 0x3cb65c6aU, 0x3cbe54033cbe7335U, 0x0U,
  0x0U, 0x3cd8db6aU, 0x3d0602ceU, 0x3cfba63dU,
  0x3d1b4c6400000000U, 0x3d4f4ab900000000U, 0x3d530f1a00000000U, 0x3d3eaabeU,
  0x3d809fc300000000U, 0x3d66531aU, 0x0U, 0x3d833062U,
  0x0U, 0x3bd4a2053ca5e3f8U, 0xbb9557adbb640212U, 0x0U,
  0xba0967f43b8470a1U, 0x0U, 0x3b5807a3U, 0x3c809b2100000000U,
  0x3bf3bb283bff796bU, 0x3bb2f72dU, 0x3bd2de1fU, 0x0U,
  0x3b9de6693c2e7c95U, 0x3bfc3e4200000000U, 0x3bbb22c2U, 0x3be3b9f3U,
  0x0U, 0x3c914ce300000000U, 0x3c78599a3c9c660aU, 0x0U,
  0x0U, 0x3ce6ae4f3d1a4979U, 0x3c9ffc473ce7fcbaU, 0x3cb27cb33cc45737U,
  0x3c98462cU, 0x0U, 0x3cb9396500000000U, 0x3cb653cf3cb8ca3aU,
  0x0U, 0x3cdc29d200000000U, 0x0U, 0x3cd934e5U,
  0x3cdccb56U, 0x0U, 0x3d6dfecc3d8f3832U, 0x3d09b4c93d2139cdU,
  0x3d07389500000000U, 0x0U, 0x3d3e80ea3d81200aU, 0x3d29f6f3U,
  0x0U, 0x3d8ac83000000000U, 0x3d74addbU, 0x3d8849fdU,
  0x0U, 0x3c85d4f800000000U, 0xba793d2d3bb23c40U, 0xbba95bdeU,
  0xbb57b5fbU, 0xbac72640U, 0xb907cfd000000000U, 0x0U,
  0x3be850133c108543U, 0x3bfde05c3bd6590eU, 0x3bcd9cf9U, 0x3bcf0f0bU,
  0x0U, 0x3bd0ff7bU, 0x0U, 0x3c4da957U,
  0x3c693f14U, 0x3c700145U, 0x3d058a2800000000U, 0x3ce828253ce6ae4fU,
  0x3c8727da3c82c783U, 0x0U, 0x3c9645063cca515eU, 0x3cb666ec00000000U,
  0x3c94f89eU, 0x3caa8ffc3cc997dcU, 0x3c91efc400000000U, 0x0U,
  0x0U, 0x3cc2d6d300000000U, 0x3cec28c100000000U, 0x0U,
  0x3d017c173d0ad351U, 0x3cf4837600000000U, 0x0U, 0x3d918b7000000000U,
  0x3d1b39a53d889111U, 0x3d0713443d08dcc5U, 0x0U, 0x3d4d1ea100000000U,
  0x3d2ce40c3d657159U, 0x0U, 0x3d68ce8700000000U, 0x3d8f9cfb00000000U,
  0x0U, 0x0U, 0x3ba2c5373c780e8fU, 0xbbd9b283bb04a71dU,
  0xbb28a6e100000000U, 0xbb3877e000000000U, 0xbb2f876700000000U, 0x0U,
  0x3abcc29bb8935086U, 0x0U, 0x3bc6fac700000000U, 0x3baab99e3c62b3edU,
  0x0U, 0x3c42e2d200000000U, 0x3bd72b683bd2de1fU, 0x0U,
  0x3be5e0d1U, 0x0U, 0x3cd5504f3d1b46ddU, 0x3c863e653cd322b3U,
  0x3c9393bf00000000U, 0x3ca36f5f00000000U, 0x3cb79e2300000000U, 0x3ca0e1ee00000000U,
  0x3cba77d800000000U, 0x3ca813b73caf36eaU, 0x0U, 0x0U,
  0x0U, 0x3d1d2e543d8ae087U, 0x3cf7a9ff3d244d88U, 0x0U,
  0x3d529be800000000U, 0x3d29afde3d6748aaU, 0x0U, 0x3d837dc200000000U,
  0x3d6ea877U, 0x3d93b794U, 0x0U, 0x3c8e6d1c00000000U,
  0xbb663ed63bbbd2baU, 0xbbae58dfU, 0x3a103e2900000000U, 0xbafb668fU,
  0x3a890ba7U, 0x0U, 0x3c39a0563bfeb9a7U, 0x3bbc7eeeU,
  0x3be696f6U, 0x3c1f07d83c05e0f1U, 0x0U, 0x0U,
  0x3bfcf0bdU, 0x3c382dac3c835ef2U, 0x3c0b628d3c130c70U, 0x3c12c01200000000U,
  0x0U, 0x3c1c14d0U, 0x3c9e8a4300000000U, 0x3c85347aU,
  0x0U, 0x3ca41d76U, 0x3d926f7b00000000U, 0x3d244d883d66531aU,
  0x3c93b1df3d0c5fddU, 0x3cd540de00000000U, 0x3c9c17653cd2ecc5U, 0x3ca2713000000000U,
  0x3cb5c89e00000000U, 0x3cca32c400000000U, 0x3cc4c6abU, 0x0U,
  0x3cfa315400000000U, 0x0U, 0x3d13a9deU, 0x3d1b39a500000000U,
  0x3d565c4c00000000U, 0x3d2c16943d6518baU, 0x0U, 0x3d52dbe200000000U,
  0x0U, 0x3da2f38a00000000U, 0x3d88ebefU, 0x0U,
  0x3bb002cb3c7897f7U, 0xba9fe30ab8935086U, 0xbbc75b1ebb614f29U, 0x0U,
  0x0U, 0x3bfcfcc000000000U, 0x3c0250643c127d41U, 0x3bd27b5dU,
  0x0U, 0x3c0d1f6e00000000U, 0x3c70c48800000000U, 0x3c1e40423c56245fU,
  0x3c155807U, 0x0U, 0x0U, 0x3c862d8d3d6a9da8U,
  0x3c9e445e00000000U, 0x3d659b9300000000U, 0x3cd6bf933d11b4ecU, 0x3c932522U,
  0x3c9fe2ef3cd47f59U, 0x3cb5396d00000000U, 0x3caa2cabU, 0x0U,
  0x3ce65f8800000000U, 0x3d0d29f2U, 0x0U, 0x3d1d5f64U,
  0x3d2b8dadU, 0x3d810bd400000000U, 0x3d6c141900000000U, 0x0U,
  0x3d8248643da2e197U, 0x3d69a6203d7bda39U, 0x0U, 0x0U,
  0x3ca5b10100000000U, 0xba13bac53bbb8d67U, 0xbb91a3fbU, 0x0U,
  0x3bd6c93d3c374bf9U, 0x3bede3d4U, 0x3bb11c57U, 0x3c04a72200000000U,
  0x3bb2f72d3bd5f069U, 0x0U, 0x3bf7807100000000U, 0x3bef0480U,
  0x0U, 0x3c38f5f83c4e4a2bU, 0x3b8bc7beU, 0x0U,
  0x3c7830e8U, 0x3c770a67U, 0x3c853abf3c8464b0U, 0x0U,
  0x3d921c1600000000U, 0x3cd4eb903d11b4ecU, 0x3cb265f23cd23183U, 0x3c971538U,
  0x3cacd926U, 0x3ca1e104U, 0x3caf1417U, 0x0U,
  0x3ce61ad400000000U, 0x3d0c3fb6U, 0x0U, 0x3d1b99d8U,
  0x3d677bab3d52dbe2U, 0x3d3f6243U, 0x0U, 0x3d614c21U,
  0x3d8f061800000000U, 0x3d9e3d41U, 0x0U, 0x3bffa5963c7897f7U,
  0xbb8dc77ebb54a9dbU, 0x0U, 0x39a938d23b8470a1U, 0x0U,
  0x3ba4dec43bb0e060U, 0x3c14f19500000000U, 0x0U, 0x3bc992743bbf4998U,
  0x3bd878be00000000U, 0x0U, 0x3be966e6U, 0x3c241c6dU,
  0x3c26983b00000000U, 0x3c61176800000000U, 0x0U, 0x3d081f2a3da314f9U,
  0x3c9044543ced32e0U, 0x3ca8c02e00000000U, 0x3ca2bb4c00000000U, 0x3c93efdd3c9f3236U,
  0x0U, 0x3cc0b2cd00000000U, 0x3cb69a14U, 0x3cd18f713cae7905U,
  0x3ca36c7fU, 0x0U, 0x3cbe147700000000U, 0x3ce9cbba00000000U,
  0x3cd934e500000000U, 0x3cdb4c7a00000000U, 0x0U, 0x3d21017900000000U,
  0x3d110cc43d0afc12U, 0x0U, 0x3d4f4ab900000000U, 0x3d8336d300000000U,
  0x3d614c213d928a4dU, 0x3d52284eU, 0x3d60ebfeU, 0x0U,
  0x0U, 0x3c96104300000000U, 0x3a9f4c433bcea41aU, 0xbb5eaabaU,
  0x3b9d281100000000U, 0x3bbda76000000000U, 0x3bd3d64e00000000U, 0x3be3b9f300000000U,
  0x3bad5912U, 0x3be7eaafU, 0x0U, 0x3c12151d3bf77e7bU,
  0x0U, 0x3c108543U, 0x3c2e32b6U, 0x3c7830e83c858a08U,
  0x3c87c01d00000000U, 0x0U, 0x3c8569f0U, 0x3d12ce4000000000U,
  0x3cee6c0b3cd0cb59U, 0x3c819625U, 0x3ccba54c3cd002b0U, 0x3c9645063c94e16fU,
  0x0U, 0x0U, 0x3cdc666cU, 0x0U,
  0x3cf9a4bd3ceae39aU, 0x3cf26325U, 0x3cc87f1400000000U, 0x3d0c3fb600000000U,
  0x0U, 0x3d7532d700000000U, 0x3d1b96f4U, 0x3d4ef9973d51ee60U,
  0x3d457c8700000000U, 0x0U, 0x3d6c51d7U, 0x3d99172400000000U,
  0x3d88fca4U, 0x0U, 0x3bffa5963c79400eU, 0xbb78bf42baedcf2fU,
  0x3a79291300000000U, 0x0U, 0xb9889c573b9f0824U, 0xb884e48aU,
  0x3a974064U, 0x0U, 0x3bf4490b3bbc6072U, 0x3c87a36f00000000U,
  0x3ba93287U, 0x3bccf9c4U, 0x0U, 0x3bd3c6aaU,
  0x3c278ab500000000U, 0x3c61176800000000U, 0x0U, 0x3d1549213d12ce40U,
  0x3c90f348U, 0x3cbe26633cd4eb90U, 0x3ca1bdd23ca07bbeU, 0x3c8955703c87bf71U,
  0x0U, 0x3c8e8d693c9c3a4cU, 0x0U, 0x0U,
  0x3cb788d73cf0fb70U, 0x3cb1c4c600000000U, 0x0U, 0x3cca10aa00000000U,
  0x3cca2e87U, 0x0U, 0x3cc0de863cf8fc13U, 0x0U,
  0x0U, 0x3d2172983d91debeU, 0x3d332f7f00000000U, 0x3d4f4ab900000000U,
  0x3d80f38300000000U, 0x3d58ba88U, 0x3d5bd6e8U, 0x3d83aca700000000U,
  0x0U, 0x3c96025800000000U, 0x3b9b4e6f3c835ef2U, 0xbba79292bb046337U,
  0xb9f1b19800000000U, 0x0U, 0xba40c846U, 0x3bc069f200000000U,
  0x3c2e58db00000000U, 0x3bd5ebd53c109123U, 0x3bd7107cU, 0x3c1167a4U,
  0x3bb0aae200000000U, 0x3bd3d64e00000000U, 0x3be7f24100000000U, 0x3bbf4998U,
  0x0U, 0x3c85a1db00000000U, 0x3c81b0b0U, 0x3c954906U,
  0x0U, 0x3c90e1f2U, 0x3d7c7d9200000000U, 0x3d12ce403d1a2007U,
  0x3c832af93d154921U, 0x3cd47f5900000000U, 0x3caa68883cc1e728U, 0x3c9c05b53cb4d69dU,
  0x3c8e206a3c905db0U, 0x0U, 0x0U, 0x3c926dc900000000U,
  0x3ca493e600000000U, 0x3cc36a1900000000U, 0x0U, 0x3cd854c800000000U,
  0x3d14d37b00000000U, 0x3cd6c912U, 0x3cf18a8cU, 0x0U,
  0x0U, 0x3d4ef997U, 0x3d3f304aU, 0x3da3767200000000U,
  0x3d74a88a3d889995U, 0x3d8f9eba00000000U, 0x0U, 0x3d836057U,
  0x0U, 0x3c13489b3c93edd8U, 0xbbae2e5eba6146b2U, 0x0U,
  0x3b9f370fU, 0x3bd7f6e53c006818U, 0x3bbc7eeeU, 0x3be7cff83bd689bbU,
  0x3c155e1300000000U, 0x0U, 0x0U, 0x3c780e8f00000000U,
  0x3c29460b3c2f87b3U, 0x0U, 0x3c8464b000000000U, 0x3c8340c2U,
  0x0U, 0x3c8894e03d9927f6U, 0x3c92bba100000000U, 0x3d8f061800000000U,
  0x3d4d74d63d88f62cU, 0x3d0ba0743d1cfffdU, 0x3ce828253d0b95e6U, 0x3c9fe2efU,
  0x3ca747013ca8d879U, 0x3cb330af00000000U, 0x0U, 0x3cc3d06eU,
  0x3cc2d6d300000000U, 0x3cd65a8400000000U, 0x0U, 0x3d294319U,
  0x0U, 0x3d2a3afd3d3d826bU, 0x0U, 0x3d6b4a9c00000000U,
  0x3d932bf600000000U, 0x0U, 0x0U, 0x3c816efb00000000U,
  0xbbbc371d3b6d7ae1U, 0xbb7ec36e00000000U, 0x3afe50b200000000U, 0x3bbe087700000000U,
  0x0U, 0x3bbb6a32U, 0x3bd4a205U, 0x3c374bf93c470b9dU,
  0x3bd7f6e53c12ea0dU, 0x3c06d2833b9e25e6U, 0x0U, 0x3bcf0253U,
  0x3c08214b00000000U, 0x0U, 0x0U, 0x3c63c016U,
  0x3d7c824600000000U, 0x3d12ce403d3e1e6bU, 0x3c92bba13ccc2cacU, 0x3c8ab8e83c8618feU,
  0x3c927ac8U, 0x0U, 0x3cd2318300000000U, 0x3c9ffc473cc1e728U,
  0x3ca8d7dc00000000U, 0x3cae7905U, 0x0U, 0x0U,
  0x3d070d233cdbe63cU, 0x0U, 0x3d21017900000000U, 0x3d2d573d00000000U,
  0x0U, 0x3d8ab35400000000U, 0x3d80f3833d81c59aU, 0x3d891576U,
  0x0U, 0x0U, 0x3bc9e00c3c7897f7U, 0xbbafb406ba79030fU,
  0x0U, 0x3ca34f4400000000U, 0x3bda514f3bcd3a42U, 0x0U,
  0x3be732d3U, 0x3be7efbb3c2dbe11U, 0x3bd8e28e3c01b926U, 0x3bf455e800000000U,
  0x0U, 0x0U, 0x0U, 0x3ccc2cac3d0afc12U,
  0x3c9ffc473ce5e988U, 0x3c9ae452U, 0x3c93a6e73c9f70afU, 0x0U,
  0x3c8839043c915862U, 0x0U, 0x3cbd9c1400000000U, 0x3ca3a231U,
  0x0U, 0x3d072f4500000000U, 0x3cf01daa3d318ba7U, 0x3cd37087U,
  0x3d070d23U, 0x3d009035U, 0x0U, 0x0U,
  0x3d6df8a33d8f0618U, 0x3d1b99d8U, 0x3d3dbdea3d7c8246U, 0x3d332165U,
  0x0U, 0x3d81c59a00000000U, 0x3d81c3c3U, 0x0U,
  0x3c816efb00000000U, 0xba725c523bd4a205U, 0xbbd43856ba4c99aeU, 0x0U,
  0x0U, 0x3c0049913c0f6b9dU, 0x3be41cf23bb7fed2U, 0x3c01bf8000000000U,
  0x0U, 0x3c023eb100000000U, 0x0U, 0x3be527ea3c557326U,
  0x3bbe35f9U, 0x3bb289db3bd6abb7U, 0x0U, 0x0U,
  0x3d4ce64800000000U, 0x3d0b80653d37f725U, 0x3ccc2cac3d11b4ecU, 0x3c9fca613cd23183U,
  0x3c9cea11U, 0x3c79400eU, 0x3c93a6e73ca20432U, 0x0U,
  0x3cb788d700000000U, 0x3cc1e72800000000U, 0x0U, 0x3d2a992400000000U,
  0x3cddd7fc3d0ce4ddU, 0x0U, 0x0U, 0x3d110cc400000000U,
  0x3d1b6b6800000000U, 0x3d4b860100000000U, 0x0U, 0x3d809fc300000000U,
  0x3d5e51c7U, 0x3da27fa700000000U, 0x3d822e5fU, 0x0U,
  0x3bb23c403c81b0b0U, 0xbbd89b80ba56f3e1U, 0x0U, 0x3bf1633200000000U,
  0x3be5eac43bcd8f30U, 0x3bcc65c5U, 0x0U, 0x3c568ebb00000000U,
  0x3bf4b8323c121fe8U, 0x3c0d1d3100000000U, 0x0U, 0x0U,
  0x3ca2bb4c3da3242cU, 0x3c9032da3c9563a7U, 0x3c9af9ce00000000U, 0x3c94fded3c8b6902U,
  0x0U, 0x3ca4a7ebU, 0x0U, 0x3d892d1000000000U,
  0x3d67ed113d80c9a1U, 0x3cbdf0963cd6bf93U, 0x3c9dd1be3ccd385eU, 0x3cb0c5e400000000U,
  0x0U, 0x3cb475383d0831c6U, 0x0U, 0x3ccb038b00000000U,
  0x3cc84c5cU, 0x0U, 0x3ce6906e3d04c5bfU, 0x3d2331baU,
  0x0U, 0x3d110cc4U, 0x3d1b4c64U, 0x3d2a0005U,
  0x3d54ec3300000000U, 0x3d8959e200000000U, 0x0U, 0x0U,
  0x3c8f9b2f00000000U, 0xba56f3e13bd4a205U, 0xbb95cfb6U, 0x0U,
  0x3be242f63c85b988U, 0x3c2494f300000000U, 0x3bc13d853c3539f2U, 0x3be20b8f00000000U,
  0x3be6751a00000000U, 0x3bb4852bU, 0x3bdfc0dcU, 0x3be04ab0U,
  0x0U, 0x3c15f3cc00000000U, 0x3c55732600000000U, 0x3c9e21b300000000U,
  0x3c7d5201U, 0x3c81c91dU, 0x0U, 0x3d1081da00000000U,
  0x3caa57b83d13e93fU, 0x3c9b06c9U, 0x3caccadaU, 0x3ccc13da00000000U,
  0x3cc17caf3cd21fa6U, 0x3cac895cU, 0x3cb732f53ca559a0U, 0x0U,
  0x3cae89cbU, 0x0U, 0x3cfafbe500000000U, 0x0U,
  0x3d8aac6000000000U, 0x3d1bca75U, 0x3d332f7fU, 0x3d4eeb473da20213U,
  0x3d52784b00000000U, 0x3d5413e400000000U, 0x3d6de47a00000000U, 0x3d85b97b00000000U,
  0x3d88b55b00000000U, 0x3d893cf500000000U, 0x0U, 0x0U,
  0x3ba238793c858a08U, 0x3aaacdff3b0eafa4U, 0xba6146b2bb06d01bU, 0xbbd9b283U,
  0x0U, 0x0U, 0x3ca7ce8900000000U, 0x3bbf4293U,
  0x3c94213f3ca45605U, 0x3bba4b7c3c4d1161U, 0x3c17fb4f00000000U, 0x3bc815f03c02065fU,
  0x0U, 0x3be082463c0ff31eU, 0x3c16651f00000000U, 0x0U,
  0x3c4450e100000000U, 0x3c394da800000000U, 0x0U, 0x3c738516U,
  0x3c8d659c3c834e1eU, 0x0U, 0x0U, 0x0U,
  0x3da011523d8f0618U, 0x3c87325c3c93b1dfU, 0x0U, 0x3cd4d8c23d1b6a74U,
  0x3c9c1765U, 0x3cb439ceU, 0x3cc43f823ccb2797U, 0x3caf14173cc3588dU,
  0x3ca5ade3U, 0x0U, 0x3cc04e5e00000000U, 0x0U,
  0x0U, 0x3d08dce0U, 0x3d24732aU, 0x3d1d5f64U,
  0x3d4f4ab9U, 0x3d6738cd3d925ac4U, 0x3d4348593d80fd6dU, 0x0U,
  0x0U, 0x0U, 0x3c809b2100000000U, 0xbbac0524ba56f3e1U,
  0x0U, 0x3bd4a205U, 0x3bcd3a423c38f5f8U, 0x3c008edcU,
  0x3bced33600000000U, 0x3bded35c3c006635U, 0x0U, 0x0U,
  0x3c4ae507U, 0x3d78650900000000U, 0x3c78d8ff3c85a8afU, 0x3cb511efU,
  0x0U, 0x3c8fb6443cd083ebU, 0x3c9bb92f00000000U, 0x3c964506U,
  0x3ca44ecd00000000U, 0x3cb74ad800000000U, 0x0U, 0x3cca515e3cd4eb90U,
  0x3cc95a2cU, 0x3cdf33faU, 0x3cc4cbc000000000U, 0x0U,
  0x3d3213603d12c438U, 0x0U, 0x3d210179U, 0x3d4f6c25U,
  0x3d8100493d6b3c92U, 0x3d589dd1U, 0x0U, 0x3da25f4000000000U,
  0x3d82f304U, 0x0U, 0x3ba238793c8cd10dU, 0xbb8abab9bb046337U,
  0x0U, 0x3b80141cU, 0x3b32e828U, 0x3c9fe6a800000000U,
  0x3bcea41a3c0c2cc0U, 0x3b7516d83bf82adeU, 0x0U, 0x3bcd24ffU,
  0x3bc25eaeU, 0x3c012d7000000000U, 0x3c06236d00000000U, 0x0U,
  0x3c13e8e33c4d1cb8U, 0x0U, 0x3c66318e3c8aa67aU, 0x3c9032da00000000U,
  0x0U, 0x0U, 0x3d8891113d8ac830U, 0x3ced67ea3d0aee7cU,
  0x3c93b1df3cd47f59U, 0x3c9c291300000000U, 0x3cca515e00000000U, 0x3ca2fef8U,
  0x3cbd3e3b3caf1417U, 0x0U, 0x0U, 0x3cd5216bU,
  0x3cdbdf0aU, 0x3d0cffab00000000U, 0x0U, 0x3d1b606cU,
  0x3d3dbdea3d4d74d6U, 0x3d29fd99U, 0x0U, 0x3d6c41483d9269c1U,
  0x0U, 0x0U, 0x3c7830e800000000U, 0x3b0eafa43bb061aeU,
  0xbb76ad19U, 0xbb5bf593bb06d01bU, 0xbb17c76b00000000U, 0x0U,
  0x3aa6bde5U, 0x0U, 0x3bffeae13c3cbd03U, 0x3bbd07593bf9d38cU,
  0x0U, 0x3c0339a700000000U, 0x0U, 0x3c39cde6U,
  0x3c61e5d1U, 0x3d8eff8800000000U, 0x3c90becbU, 0x3d04278c3d521424U,
  0x3cd47f593ce844c4U, 0x3c9325223c9c1765U, 0x3c896d43U, 0x0U,
  0x3c9fe2efU, 0x3ca94322U, 0x3cc3a495U, 0x3cca764800000000U,
  0x3d22a58400000000U, 0x3cf339f6U, 0x0U, 0x3d1bc9e100000000U,
  0x3d2686d33d07259aU, 0x0U, 0x3d29649400000000U, 0x3d65715900000000U,
  0x3d4cbc9a00000000U, 0x0U, 0x3d80cf47U, 0x3d657063U,
  0x3d8a1a6f00000000U, 0x3d89435aU, 0x0U, 0x3bbb8dec3c5eb7adU,
  0xbb8dc77ebb046337U, 0xbb40df1400000000U, 0x0U, 0xba21e1063bd51aa0U,
  0x0U, 0x3b9bdb2cU, 0x3bb8b85bU, 0x3c13489b00000000U,
  0x3bd993723c0010f9U, 0x3bc4fd7dU, 0x3c148556U, 0x0U,
  0x3c451f2400000000U, 0x3c4c8dc300000000U, 0x0U, 0x3d056e563d6ce92fU,
  0x3cd47f593d0b212aU, 0x3c93b1df3c9ffc47U, 0x3c572f8fU, 0x3c780e8f3c8586ffU,
  0x3c6dc37300000000U, 0x0U, 0x0U, 0x3ca9d9443cb4b974U,
  0x3caaf8fcU, 0x0U, 0x3cd8be9800000000U, 0x3cdf491e00000000U,
  0x0U, 0x3d0602ce3cf93282U, 0x0U, 0x3d69346b00000000U,
  0x3d23659c3d210179U, 0x0U, 0x3d2d46e9U, 0x3d3e8dde3d4d74d6U,
  0x0U, 0x0U, 0x3d88692b3d8e3d57U, 0x0U,
  0x3c780e8f00000000U, 0xba56f3e13b8470a1U, 0xbbb12ec2U, 0x0U,
  0x3b8537c23bc6fac7U, 0x3b55286dU, 0x3bbd8d4b00000000U, 0x3bd47dda00000000U,
  0x0U, 0x3c0dda4c3c61e5d1U, 0x3bfd67533c01b8d3U, 0x3bf01ee200000000U,
  0x0U, 0x0U, 0x3d8e49e100000000U, 0x3c9ae452U,
  0x3ca1bdd23ca07bbeU, 0x3c8d4d0eU, 0x3c938e95U, 0x0U,
  0x3d0b95e63d1bfe1fU, 0x3cb55a543cbdf096U, 0x3cb691e6U, 0x0U,
  0x3cd6c81d3cd621b5U, 0x0U, 0x3cdd4f4fU, 0x0U,
  0x3d26ea183d1b4c64U, 0x3d09b4c9U, 0x0U, 0x3d3eb5383d7c8246U,
  0x3d29e3d2U, 0x0U, 0x3d652a4aU, 0x3d6a23feU,
  0x3d72bb01U, 0x3d9e06e9U, 0x0U, 0x3bd51aa03c961043U,
  0xbba95bdeba725c52U, 0xbb5bf59300000000U, 0xba0967f400000000U, 0x0U,
  0x3b9b4e6f00000000U, 0x3bfeb9a700000000U, 0x3bac81a0U, 0x3bfde05cU,
  0x3bfe8e9aU, 0x3c20ac7700000000U, 0x3bcef64fU, 0x3c1d1ad4U,
  0x3c19692fU, 0x3c4c8dc300000000U, 0x3c24089dU, 0x3c7897f700000000U,
  0x3c99f0cf00000000U, 0x0U, 0x3c81a3cc3d8ed18fU, 0x3cb467aa00000000U,
  0x3c8ecf07U, 0x3c9b3c04U, 0x3cc0b2cd00000000U, 0x3c94a5f93cd083ebU,
  0x3cb74ad800000000U, 0x3cc4a42fU, 0x3ca6a150U, 0x0U,
  0x3d11b4ec00000000U, 0x3cee6c0b3cd4eb90U, 0x3cd4cec7U, 0x0U,
  0x3ccd564a3cd4cd26U, 0x0U, 0x3d1d32a800000000U, 0x3d80f38300000000U,
  0x3d541acb3d5b5090U, 0x3d2af8ba3d38ebdaU, 0x0U, 0x0U,
  0x0U, 0x3d8248643d98ff43U, 0x0U, 0x3c79400e00000000U,
  0xbb8ae26d3b98f809U, 0xbbafb406U, 0x3bc7bd1200000000U, 0xbb9072d0bb663ed6U,
  0x0U, 0xba466842U, 0x0U, 0x3c19b4cb3c418230U,
  0x3bb23c40U, 0x3bce62b4U, 0x3beaaf033c4ba661U, 0x3bc6726a00000000U,
  0x0U, 0x0U, 0x3c28b93c3c46e852U, 0x0U,
  0x3d6cf64200000000U, 0x3cd854c83d1a4979U, 0x3c9d3b763cd322b3U, 0x3c9563a700000000U,
  0x3c86d32d3c8632a6U, 0x0U, 0x3ca58ebf00000000U, 0x3c9c559e3cb3a34dU,
  0x3cb7fee6U, 0x0U, 0x3ca56b55U, 0x3cb86b0d00000000U,
  0x3cc561183ca86d33U, 0x0U, 0x0U, 0x3cea4fce00000000U,
  0x3cf2195cU, 0x0U, 0x3d10faf63d1a5a18U, 0x3d1a2695U,
  0x0U, 0x3d3dbdea3d52dbe2U, 0x3d291000U, 0x0U,
  0x3d6d3acfU, 0x3da3767200000000U, 0x3da05c87U, 0x0U,
  0x3bbbd7613c960258U, 0xbb8abab93adc0773U, 0x0U, 0x3bd51aa0U,
  0x3c01fc083c09bd70U, 0x0U, 0x3c858a0800000000U, 0x3bb7a00f3bfeb9a7U,
  0x0U, 0x3c1f0b4a3c2d7431U, 0x3c0d1f6e3c14cda7U, 0x0U,
  0x0U, 0x3c6d18bd3c9f99c2U, 0x3c857c1200000000U, 0x0U,
  0x3c8464b000000000U, 0x0U, 0x3ccc13da3d2407acU, 0x3c934d1eU,
  0x3caa68883cd2ecc5U, 0x3c8a77123c94e16fU, 0x0U, 0x3cb21788U,
  0x3cb2f53e00000000U, 0x3ca5500f3cc94feaU, 0x0U, 0x3cae7a75U,
  0x0U, 0x3cf807f700000000U, 0x3ced9d793d192157U, 0x3ce8e6d900000000U,
  0x0U, 0x0U, 0x3d1b99d83d8aa8e6U, 0x3d565c4c00000000U,
  0x3d2e7b383d38ebdaU, 0x0U, 0x3d88b55b00000000U, 0x3d5318e73d80c9a1U,
  0x0U, 0x3d8f3ab300000000U, 0x0U, 0x3c858a0800000000U,
  0xb99b1df83bcc165cU, 0xbbd43856ba3c1571U, 0x0U, 0x3ba2387900000000U,
  0x3bb231c300000000U, 0x3baf8271U, 0x3c16f38d00000000U, 0x3bce8296U,
  0x3baac63eU, 0x3bac4761U, 0x3c1f707e00000000U, 0x0U,
  0x3c0e9c813c8c6defU, 0x3bfeb9a7U, 0x3bd6b68cU, 0x3c536f1c00000000U,
  0x3c66d16500000000U, 0x3c87fcff00000000U, 0x0U, 0x3d6db9ff00000000U,
  0x3d0b95e63d2407acU, 0x3ca8d8793cd083ebU, 0x3c9db5483c938e95U, 0x0U,
  0x3ca0383fU, 0x3cb732f53ca32ba3U, 0x0U, 0x0U,
  0x3ccbbb81U, 0x3cd47f59U, 0x3cd94079U, 0x3d12249d00000000U,
  0x0U, 0x3d1b22c8U, 0x3d5b6e323d80f383U, 0x3d3e8e3b3d53cdc2U,
  0x3d332f7fU, 0x0U, 0x0U, 0x3d91181a00000000U,
  0x3d899a85U, 0x0U, 0x3bc493303c816efbU, 0xbb98f8e5ba56f3e1U,
  0x0U, 0x3bccf54a00000000U, 0x3bf632ad3bf81a45U, 0x0U,
  0x3c3a8efe00000000U, 0x3c1e40423c2f87b3U, 0x3c068e8c3c0480caU, 0x3bda4368U,
  0x0U, 0x0U, 0x3c61e5d100000000U, 0x0U,
  0x3c9ae4523d6cf642U, 0x3cc27c8900000000U, 0x3c9fe2ef3ce7a708U, 0x3c91ae703cb4b35aU,
  0x3c8d4d0eU, 0x3c90d82bU, 0x3c996f34U, 0x0U,
  0x3ca4057800000000U, 0x3cb10cf800000000U, 0x0U, 0x3d11b4ec00000000U,
  0x3cd370873ce41993U, 0x0U, 0x3d1b39a500000000U, 0x3d4f07e800000000U,
  0x3d52322300000000U, 0x3d6d3acf00000000U, 0x3d52dbe2U, 0x0U,
  0x3d899a853d91181aU, 0x0U, 0x3c7897f700000000U, 0xbb06d01b3bade2c7U,
  0xbb40df14U, 0xb989105400000000U, 0x0U, 0x3bce62b43c3bb279U,
  0x3bda4368U, 0x3bbd28d500000000U, 0x3bfba8ca00000000U, 0x0U,
  0x3c61e5d1U, 0x3d5289a200000000U, 0x3c90f348U, 0x3d1b46dd3d38ebdaU,
  0x3cbd84e03cd4eb90U, 0x3ca1bdd23ca06265U, 0x3c9394a53c94a5f9U, 0x0U,
  0x0U, 0x3cae7905U, 0x3ccdcefcU, 0x3ce7eb5c00000000U,
  0x3ce6d3e4U, 0x0U, 0x3d3cd8f300000000U, 0x3d0afc123d3933e2U,
  0x3d11f864U, 0x3d119a91U, 0x0U, 0x0U,
  0x3da391e300000000U, 0x3d6ea877U, 0x3d72409fU, 0x3da0966dU,
  0x0U, 0x3bd4a2053c81b0b0U, 0xbae2dba83a2e6a3cU, 0xbb95cfb6bb7cb0bfU,
  0x0U, 0x39e2290000000000U, 0xba513bcc00000000U, 0x0U,
  0x3ba2f42200000000U, 0x3c3bb27900000000U, 0x3bce88e63bed26a2U, 0x3becb5c000000000U,
  0x3b8b323c3c1e4bdbU, 0x0U, 0x0U, 0x3c62b28b00000000U,
  0x0U, 0x3cd4d8c23d2407acU, 0x3c9c05b53ca6087eU, 0x3c9ae452U,
  0x3c780e8fU, 0x3c93efddU, 0x3c97bc57U, 0x0U,
  0x3cd74cea3ccbf607U, 0x3cc36a19U, 0x3cd4f063U, 0x3ccb947bU,
  0x0U, 0x3ccc19fe00000000U, 0x3d13a9de00000000U, 0x3d2393633d145ee4U,
  0x0U, 0x0U, 0x3d1d65c83d8f0618U, 0x3d8336d300000000U,
  0x3d2d573dU, 0x3d69346b3d752386U, 0x3d57e3f03d5d47ceU, 0x3d670535U,
  0x3d531ec0U, 0x0U, 0x0U, 0x0U,
  0x3c7897f700000000U, 0xba0967f43b8275a7U, 0xbbb04c4aU, 0x0U,
  0x3bfd02903c26983bU, 0x3bc34ec53bece1cdU, 0x3b9ec56600000000U, 0x0U,
  0x3be93dfa3c188f3bU, 0x3bd3d64e00000000U, 0x3c1287f2U, 0x0U,
  0x3bc89454U, 0x0U, 0x3c38902aU, 0x3c840fa03c68537bU,
  0x0U, 0x3d7c824600000000U, 0x3d11b4ec3d3d6b4cU, 0x3c9ae4523cebb56cU,
  0x3cd322b300000000U, 0x3cb439ce3cb91f5aU, 0x3c9325223c9c1765U, 0x3c8e8a53U,
  0x0U, 0x3ccd385e00000000U, 0x3cc47dc500000000U, 0x0U,
  0x3cd9960300000000U, 0x0U, 0x3d1b606c00000000U, 0x3d29fd9900000000U,
  0x0U, 0x3da314f900000000U, 0x3d6dfecc3d892d10U, 0x3d74b6c700000000U,
  0x0U, 0x0U, 0x3bcaaeeb3c85347aU, 0xbb98f8e5ba6146b2U,
  0x0U, 0x3c7830e800000000U, 0x3bcc60fbU, 0x3be722333c17fb4fU,
  0x3bbc6300U, 0x3bf1d795U, 0x0U, 0x3c6784c9U,
  0x3c5f3b5fU, 0x3c72b7ca00000000U, 0x3c8e7e1700000000U, 0x0U,
  0x3c877a0f3d3cd8f3U, 0x3cbdcd3900000000U, 0x3c945ebcU, 0x3cb69a14U,
  0x3ca4e30300000000U, 0x3cd6bf9300000000U, 0x3cb9bc933cbe028bU, 0x3cd501b53ccf9a69U,
  0x3cb788d7U, 0x0U, 0x0U, 0x3ce82825U,
  0x3d04c5bf00000000U, 0x3cd6c9123ce5316cU, 0x0U, 0x3d273f3300000000U,
  0x3d10b156U, 0x0U, 0x3d837dc23d91f698U, 0x3d3e789f3d8ed18fU,
  0x3d65297300000000U, 0x3d66531a00000000U, 0x0U, 0x0U,
  0x3c5edb0300000000U, 0xbb51c0723bff5e01U, 0xbbc6f9a2U, 0x3b776e4c00000000U,
  0xba0967f4U, 0x3bbd8d4b00000000U, 0x3af409dc3bb863e3U, 0x0U,
  0x3baeb776U, 0x3c036e2800000000U, 0x3c1d0255U, 0x3c0d1f6e00000000U,
  0x0U, 0x3c108543U, 0x3c382dacU, 0x3d7532d700000000U,
  0x3c52f7c1U, 0x3c7897f7U, 0x3c9ae452U, 0x3cae79053cd5504fU,
  0x3cb638b03ca09567U, 0x3c85ffa8U, 0x3c944ffdU, 0x0U,
  0x3cbf8a5200000000U, 0x3ce5e98800000000U, 0x3cc834ffU, 0x0U,
  0x3ccc19fe3d193c20U, 0x3ce8d4d900000000U, 0x3ce51e6cU, 0x0U,
  0x3d11b4ecU, 0x3d210179U, 0x3d4f4ab9U, 0x3d7124efU,
  0x3d660d27U, 0x3d69346bU, 0x3d8f061800000000U, 0x3d85660bU,
  0x0U, 0x3bd23deb3ca5e3f8U, 0xbbb07169ba56f3e1U, 0x0U,
  0x3ba2387900000000U, 0x3bcd3a4200000000U, 0x3c3dc90dU, 0x3c809b2100000000U,
  0x3c3bb2793c2475c8U, 0x3beb37abU, 0x3bfee87cU, 0x0U,
  0x3c20be96U, 0x3c3b4a62U, 0x3c97449700000000U, 0x3c617079U,
  0x3c83278cU, 0x3c9ae452U, 0x3c8dd97dU, 0x3c8e242100000000U,
  0x0U, 0x3d1b6a743d921c16U, 0x3cae79053cd52e11U, 0x3c83293d3cd083ebU,
  0x3ca3df6700000000U, 0x3ca1ea0aU, 0x0U, 0x3ccbbb81U,
  0x3cd322b300000000U, 0x3ccb3cb8U, 0x0U, 0x3d1b606c00000000U,
  0x3d1fc3063d06fceeU, 0x3d139b4700000000U, 0x0U, 0x3d5289a200000000U,
  0x3d2e3a4a3d38ebdaU, 0x0U, 0x3d6bc65100000000U, 0x0U,
  0x3d8336d33d910d88U, 0x0U, 0x3c79400e00000000U, 0xbbdb4a8aba56f3e1U,
  0x0U, 0x3b9e7b66U, 0x3bcea41a3bfe2ca9U, 0x3bc380d43bb62a21U,
  0x0U, 0x3b7abb10U, 0x3c17e6f2U, 0x0U,
  0x3c0dda4c3c38902aU, 0x3bd694c2U, 0x3c6a3833U, 0x0U,
  0x3cb50f70U, 0x3d9927f600000000U, 0x3d52dbe23d899a85U, 0x3d3b17683d3d2816U,
  0x3c9bec39U, 0x3ca58ebf3cd5216bU, 0x3c971538U, 0x3ca59f2b3c9fe2efU,
  0x3c938e95U, 0x0U, 0x3cbf700400000000U, 0x3cb35c6cU,
  0x3cc0b2cd00000000U, 0x0U, 0x3d0b95e63d136ddbU, 0x3cf339f6U,
  0x0U, 0x3d331bb5U, 0x0U, 0x3d80f38300000000U,
  0x3d675554U, 0x0U, 0x0U, 0x3bc452613ca5b101U,
  0xbaa21b9f3b0eafa4U, 0xbb9d87f5bb5a591eU, 0x0U, 0x0U,
  0x3bf1633200000000U, 0x3ba0180f3bd642ffU, 0x0U, 0x3bbfaad23bf9b73aU,
  0x3bb20db8U, 0x3bad5912U, 0x0U, 0x3be1183300000000U,
  0x3c55732600000000U, 0x3bd18854U, 0x3c68d3b13c1f4d5eU, 0x0U,
  0x3c48f9f3U, 0x3c320123U, 0x3c80f25b00000000U, 0x3c90ce5d00000000U,
  0x3c905ea8U, 0x3c8b30313c851e8cU, 0x0U, 0x0U,
  0x3d11b4ec3da3242cU, 0x3caa57b83ceb9069U, 0x3ca8c02eU, 0x3c8ef6caU,
  0x3ca4e183U, 0x3cd6bf9300000000U, 0x3cb9072c3cd47f59U, 0x3cb8c80b3cd15303U,
  0x0U, 0x3ca9cf3aU, 0x3cbd3e3bU, 0x0U,
  0x3ce49b8b00000000U, 0x0U, 0x3d1d32a800000000U, 0x3d83813800000000U,
  0x3d51ec283d80c9a1U, 0x3d4ccc08U, 0x3d4f6c25U, 0x0U,
  0x0U, 0x3c816efb00000000U, 0x3b1369303bcaaeebU, 0xbb87b7c3bb06d01bU,
  0x3a41e6d900000000U, 0x0U, 0xb9891054U, 0x0U,
  0x3bbc8a9a3bf6bc12U, 0x3bcea41a00000000U, 0x3bded35cU, 0x3ba80c503bbc4283U,
  0x3bf59dd200000000U, 0x0U, 0x3be256e4U, 0x0U,
  0x3c1085433c614c54U, 0x3be514473c12c012U, 0x0U, 0x0U,
  0x3d60ec7500000000U, 0x3cbd84e03cd26d8cU, 0x3c7830e83cc25b0dU, 0x3cd18f7100000000U,
  0x3c85b9883cb8c80bU, 0x3ca22e3100000000U, 0x3c8e062eU, 0x3c945ebc00000000U,
  0x3c93b310U, 0x0U, 0x0U, 0x3cd6bf9300000000U,
  0x0U, 0x3ced67ea3d089918U, 0x3d06f7feU, 0x3d0efa2400000000U,
  0x0U, 0x3d2407ac3d1b606cU, 0x0U, 0x3d3d03c83d65bac3U,
  0x3d2971e2U, 0x0U, 0x3d90898c00000000U, 0x3d80f3833d824864U,
  0x0U, 0x0U, 0x3bffa5963c7830e8U, 0xbb7f3b66bace18c1U,
  0xbaedcf2f00000000U, 0xbb33da35U, 0xbb06f080U, 0x0U,
  0x391a2368U, 0x3bd51aa0U, 0x3c1d02703b9ef08dU, 0x3c06d283U,
  0x0U, 0x3bd30aedU, 0x3bbc3e73U, 0x3bd54cbc3c086589U,
  0x0U, 0x3c6784c900000000U, 0x3c0e9c81U, 0x3c2f622cU,
  0x3c56b23000000000U, 0x0U, 0x3cf770f93d2407acU, 0x3c90becb3ce7533fU,
  0x3d070d2300000000U, 0x3ce9a0003cc38b1bU, 0x3c96d264U, 0x3c9394a53cb3cfecU,
  0x3ca0b9cb00000000U, 0x3ca4b09900000000U, 0x3c94500a3cc0fdefU, 0x0U,
  0x0U, 0x3cbee0283cca515eU, 0x3cd4f06300000000U, 0x0U,
  0x0U, 0x3cc452413cd05e7eU, 0x0U, 0x0U,
  0x3d07389500000000U, 0x0U, 0x3d2139cd3da3242cU, 0x3d52dbe200000000U,
  0x3d558f023d67ed11U, 0x0U, 0x3d82486400000000U, 0x3d6d6356U,
  0x3d9599caU, 0x0U, 0x3c9629a200000000U, 0xba725c523ba8583aU,
  0xbbbd221fba56f3e1U, 0x0U, 0x3bc0752000000000U, 0x3bca101000000000U,
  0x0U, 0x3bcd9d9aU, 0x3bce62b4U, 0x3be5bf05U,
  0x3bbfaad23c2e32b6U, 0x3be0d54e3be6751aU, 0x3c155d5800000000U, 0x0U,
  0x0U, 0x3c7fd3e83c83687aU, 0x3c95ab3f00000000U, 0x0U,
  0x3c861ab2U, 0x3c8e3c513cadd6baU, 0x0U, 0x3d8b06ca00000000U,
  0x3c89eeb63c8317c6U, 0x0U, 0x3d2458493d831076U, 0x3cd322b33ced67eaU,
  0x3c9336b23cc25b0dU, 0x3c9c176500000000U, 0x3ca44ecd00000000U, 0x3ca8d7dc00000000U,
  0x3ccf9a693cc4c6abU, 0x0U, 0x0U, 0x3cd8eadb00000000U,
  0x3d022b5100000000U, 0x0U, 0x3d073895U, 0x3d1aa41b00000000U,
  0x3d81004900000000U, 0x3d4d32ff3d38ebdaU, 0x0U, 0x3d926f7b00000000U,
  0x3d6c5092U, 0x0U, 0x0U, 0x3ba8583a3c9599c9U,
  0xbb1e7397bae6d758U, 0xbb18ab9500000000U, 0xbb230e5f00000000U, 0x0U,
  0x3aa1949cb8935086U, 0x0U, 0x3bb68bb0U, 0x3c0025cd00000000U,
  0x3bcd24ff3bc50d60U, 0x0U, 0x3b945cd7U, 0x3bfe267fU,
  0x3c052baeU, 0x3c65371100000000U, 0x3c1c14d03c56cc93U, 0x3c1d0a283c0a80dfU,
  0x0U, 0x0U, 0x3c79e82e00000000U, 0x3c8e496000000000U,
  0x0U, 0x3c8894e03d80c9a1U, 0x3d1081da00000000U, 0x3cd54c783cdc8892U,
  0x3c93b1dfU, 0x3cbd852fU, 0x3cb666ec3cb9072cU, 0x3c9fc997U,
  0x0U, 0x3cd4fe1400000000U, 0x3cda3a3d00000000U, 0x0U,
  0x3cd63e3d3ce8d4d9U, 0x0U, 0x3d21017900000000U, 0x3d5b6e3200000000U,
  0x3d2b8dadU, 0x3d4f07e8U, 0x0U, 0x3d8933753d8ab6ceU,
  0x0U, 0x3c8379ce00000000U, 0xba56f3e13bbb6a32U, 0xbbc2af41U,
  0x0U, 0x3bb9e6993bcca352U, 0x0U, 0x3bf743953be732d3U,
  0x3bf71e14U, 0x0U, 0x3bbdb0833c4ae507U, 0x3c14f195U,
  0x0U, 0x3c6f592fU, 0x3d8aac6000000000U, 0x3c9dc76c3c85b988U,
  0x3c880c5a3c8d8604U, 0x0U, 0x0U, 0x3c93b1df3c8eca33U,
  0x0U, 0x3c9393bf3cbd852fU, 0x0U, 0x3cb3772cU,
  0x3cd47f593d021e5dU, 0x3ccd385eU, 0x3ccf66b03cb02954U, 0x0U,
  0x0U, 0x3ce6ae4f3d11b4ecU, 0x3cd85e0cU, 0x0U,
  0x3d1d32a8U, 0x3d4f07e83d7d2a9cU, 0x3d708f1100000000U, 0x0U,
  0x3d80f3833d81da9aU, 0x3d675554U, 0x0U, 0x0U,
  0x3bb23c403c7897f7U, 0xba56f3e1b9889c57U, 0xbbc53453U, 0x0U,
  0x3c9dc76c00000000U, 0x3c3d0f013c411b68U, 0x3bcd3a42U, 0x3bc25eae3bfb3a92U,
  0x3bf7ba173be9c8a3U, 0x0U, 0x0U, 0x0U,
  0x0U, 0x3c90f3483d723944U, 0x3c953c0800000000U, 0x3d0afc1200000000U,
  0x3cd1baaa3ced67eaU, 0x3c93a6e73ca94322U, 0x3ccf9a6900000000U, 0x3cad5c7fU,
  0x3cb65c6aU, 0x0U, 0x3ccbc33500000000U, 0x3cc25b0d3cd022f9U,
  0x0U, 0x3ce3e5a500000000U, 0x0U, 0x3d23659cU,
  0x3d28d2e8U, 0x3d1d2e5400000000U, 0x3d809fc300000000U, 0x3d2e26d13d3c2a94U,
  0x0U, 0x3d54e847U, 0x3d5d1f03U, 0x0U,
  0x3d88b55b3d8e49e1U, 0x0U, 0x3c7830e800000000U, 0xbb0463373bbbd761U,
  0xbba8b96bU, 0xb9f1b198U, 0x3a9f4c4300000000U, 0x3bd51aa000000000U,
  0x3baad6c100000000U, 0x3ba07b5200000000U, 0x0U, 0x3bd44f503c0601ffU,
  0x3bfbd77700000000U, 0x0U, 0x3bdf214c3c418230U, 0x3c14904d00000000U,
  0x0U, 0x3c2cc9503c557326U, 0x0U, 0x3d917f4b00000000U,
  0x3cea74d83d1b46ddU, 0x3c9044543cbe028bU, 0x3cacaf3100000000U, 0x3c9c05b500000000U,
  0x3caa688800000000U, 0x3cabfb7eU, 0x3ca47a0300000000U, 0x3cb69a14U,
  0x3cb10cf800000000U, 0x0U, 0x3ccbc335U, 0x3cda588bU,
  0x0U, 0x3d80fd633d889aa8U, 0x3d0956913d524624U, 0x3d29431900000000U,
  0x3d1b69eb00000000U, 0x3d4bda0d00000000U, 0x3d4f07e8U, 0x0U,
  0x0U, 0x0U, 0x3bc452613c81c91dU, 0xba6146b23b0eafa4U,
  0xbbd3c419U, 0x0U, 0x3c3bb27900000000U, 0x3ba04aed3bba2b0bU,
  0x3bdd1e66U, 0x3bff2deb00000000U, 0x0U, 0x3bd1e2ffU,
  0x3c3ac21800000000U, 0x3c62f0b400000000U, 0x3c61dee3U, 0x0U,
  0x3d2101793d4d74d6U, 0x3cd6bf933d110b4aU, 0x3c9bec39U, 0x3cbd544c3cd322b3U,
  0x3c76a0a63c9c05b5U, 0x3c957edc00000000U, 0x3c94494300000000U, 0x0U,
  0x3c9f1e58U, 0x3cb91f5a00000000U, 0x3cbe03b13ca8d879U, 0x0U,
  0x0U, 0x3ce5316c00000000U, 0x3d0bdb4dU, 0x0U,
  0x3d6748aa00000000U, 0x3d2bdbe3U, 0x0U, 0x3d889aa83da2960dU,
  0x3d74feeb3d809fc3U, 0x0U, 0x0U, 0x3c86025300000000U,
  0xbace18c13b834069U, 0xbb3f484dU, 0xbad722a1U, 0x0U,
  0x3c5780783c4d1161U, 0x3be0ecd43bf74395U, 0x3b8a35ac3bd353d9U, 0x0U,
  0x3bdf8a5d00000000U, 0x3b8ed6e5U, 0x0U, 0x3c25a3403c2452c1U,
  0x3bb76739U, 0x0U, 0x3c2004b23c3059d4U, 0x0U,
  0x0U, 0x3c89382a3c8aa67aU, 0x3c31a9ac3c4ad0e9U, 0x0U,
  0x3c8876cdU, 0x3c9e04cb00000000U, 0x0U, 0x3d8ac83000000000U,
  0x3c98decbU, 0x3d80a9a33d899a85U, 0x3c8eb0fb3cbd852fU, 0x3ca24facU,
  0x3c91efc400000000U, 0x3c9359bfU, 0x0U, 0x3ca016603ca58ebfU,
  0x0U, 0x3cbd84e03cd4eb90U, 0x3cac6faf3cbfb9aaU, 0x3cd4b42000000000U,
  0x0U, 0x0U, 0x3cebf7233d11b4ecU, 0x3cdf9c9d00000000U,
  0x3d0c54dbU, 0x0U, 0x3d1b4c64U, 0x3d5072f03d5d764cU,
  0x3d436e5800000000U, 0x0U, 0x3d894b8eU, 0x0U,
  0x0U, 0x3b9e7b663c93edd8U, 0xbbdb4a8aba56f3e1U, 0x0U,
  0x3c0c2cc000000000U, 0x3be67a1a3bcda653U, 0x0U, 0x3bc8ef2cU,
  0x3be95d01U, 0x3c49a25900000000U, 0x3c12de59U, 0x3c2ef8f100000000U,
  0x3c815c4800000000U, 0x3c78103f00000000U, 0x3c795ec600000000U, 0x0U,
  0x3c8993073d80f383U, 0x3c820258U, 0x3caa8ffc00000000U, 0x3ca095f03cab940eU,
  0x3c919f71U, 0x3c92890100000000U, 0x0U, 0x3d65391e00000000U,
  0x3d0ce4dd3d04eb31U, 0x3cb6a0013cd47f59U, 0x3c91efc4U, 0x3ca47a0300000000U,
  0x0U, 0x3cd80963U, 0x3cf339f6U, 0x3cff5bd000000000U,
  0x3cf18c1400000000U, 0x0U, 0x3d231a00U, 0x3d0aee7c3d1b606cU,
  0x3d0e8ce8U, 0x0U, 0x3d3f6243U, 0x3d81004900000000U,
  0x3d6c18d000000000U, 0x0U, 0x3d899a853d91b130U, 0x0U,
  0x3ca5b10100000000U, 0xbb1f7e573b6b66a9U, 0x3a0307a400000000U, 0x3bb2f2b100000000U,
  0x0U, 0x3bc52140U, 0x3bbda7603bf6bc12U, 0x3bfd2c2200000000U,
  0x3be7efbbU, 0x0U, 0x3c16944a3c5be98aU, 0x3c08612cU,
  0x0U, 0x3c816efbU, 0x3c86579eU, 0x3c8b6902U,
  0x3c924ea2U, 0x3d0b850a00000000U, 0x3cd47f593ceb57c7U, 0x3c9fe2ef3cb265f2U,
  0x3c8d4d0e3c94207cU, 0x0U, 0x3ca8d7dc00000000U, 0x3cb993f9U,
  0x0U, 0x3cd9407900000000U, 0x3d0c54db00000000U, 0x0U,
  0x3d0ed2b5U, 0x3d8ac83000000000U, 0x3d4532ccU, 0x3d91fb8a3d89aa6aU,
  0x3d64f4583d6c4148U, 0x3d43f7cb3d3d6b4cU, 0x0U, 0x0U,
  0x0U, 0x0U, 0x3bff5e013c5edb03U, 0xba5d51af3ba2c537U,
  0xbbd9b283bba71099U, 0xbba6534c00000000U, 0x0U, 0xbb5e5297ba9dfc88U,
  0x0U, 0x0U, 0x3bbb9a543c422858U, 0x3bf43f6300000000U,
  0x3bb97837U, 0x3bb6dd80U, 0x0U, 0x3c185d4e00000000U,
  0x3c4c004c00000000U, 0x3c4c4b3dU, 0x3c39cbe400000000U, 0x0U,
  0x3c9602583d8aa8e6U, 0x3c8dcf1b3c8d37eeU, 0x0U, 0x3cadd6baU,
  0x3cd186df00000000U, 0x3c82857fU, 0x3c9c05b53ca8d7dcU, 0x3c982f6aU,
  0x0U, 0x3cbea08200000000U, 0x3cc5055900000000U, 0x3d23659c00000000U,
  0x3ceb25dd3cfeaf0dU, 0x3cc8e8a0U, 0x3cb9680b00000000U, 0x0U,
  0x3cf30e2b3d11b4ecU, 0x3d318ba700000000U, 0x0U, 0x3d273f3300000000U,
  0x3d925ac400000000U, 0x3d210179U, 0x3d6119443d655d62U, 0x3d41ae3c3d552840U,
  0x3d2b8dadU, 0x0U, 0x0U, 0x3d88911100000000U,
  0x0U, 0x3ca7ce8900000000U, 0xbb5c7ce93bcd24ffU, 0xbbad3474U,
  0x3a38089100000000U, 0xba9f1feaU, 0x0U, 0x3bcd3a423c0f6b9dU,
  0x3bf9d38c00000000U, 0x3bf82adeU, 0x3bbf3f95U, 0x0U,
  0x3be669863c37fc6fU, 0x3c14f195U, 0x0U, 0x3c6078ac3c79e82eU,
  0x0U, 0x3c873563U, 0x3c8fff3fU, 0x3d81200a00000000U,
  0x3c957edcU, 0x3cc5c7153ca316edU, 0x0U, 0x3d11b4ec3d67ed11U,
  0x3cd310d53ce6ae4fU, 0x3cd219893cb23036U, 0x3cb8a7d1U, 0x3cb69a14U,
  0x3ca0871eU, 0x3cb4ebefU, 0x0U, 0x3cd4118300000000U,
  0x3d070d2300000000U, 0x0U, 0x3d20e5b800000000U, 0x3d2d573d00000000U,
  0x0U, 0x3d8f061800000000U, 0x3d6b4a9c3da21468U, 0x3d72b42400000000U,
  0x0U, 0x0U, 0x3bd6c93d3ca5ee29U, 0xbbb07169ba56f3e1U,
  0x0U, 0x3bcaaeebU, 0x3bf0ac88U, 0x3c8457f200000000U,
  0x3bf516393bcb6c33U, 0x3be5632cU, 0x0U, 0x3be732d33c611768U,
  0x3be85865U, 0x0U, 0x3c8cba96U, 0x3c7897f7U,
  0x3c89ae3a00000000U, 0x0U, 0x3d0b95e63d2407acU, 0x3c974fb4U,
  0x3ca3afd13cd23183U, 0x3cc1e72800000000U, 0x3cac9a3fU, 0x3caf78323caeddc6U,
  0x3c958d1cU, 0x0U, 0x0U, 0x3cd854c8U,
  0x3cd6390aU, 0x3ce4235200000000U, 0x0U, 0x3d820ed03d8f1ca3U,
  0x3d1a4c0bU, 0x3d67ed113d4c6f33U, 0x3d2ce40cU, 0x0U,
  0x3d6c47e6U, 0x3d841c81U, 0x0U, 0x3c4ab83600000000U,
  0xba6146b23bcd3a42U, 0xbbdb4a8aU, 0x3bf6b39d00000000U, 0x3ba53fc300000000U,
  0x0U, 0x3bf0044bU, 0x3bae068d3c23c6acU, 0x3bc1ffa100000000U,
  0x0U, 0x3c345bc83c3083a8U, 0x0U, 0x3d75238600000000U,
  0x3ca178a13c863e65U, 0x3c8a920400000000U, 0x0U, 0x3c8f49d6U,
  0x3c9325223cd3720eU, 0x3c9ffc4700000000U, 0x3caf2df200000000U, 0x3cd47f5900000000U,
  0x3cc17cafU, 0x0U, 0x3cf339f63d2407acU, 0x3d33f0d800000000U,
  0x0U, 0x3d1aa41bU, 0x3d67ed113d7c8246U, 0x3d332f7fU,
  0x0U, 0x3d69346bU, 0x3d910d8800000000U, 0x3d88cf40U,
  0x0U, 0x3bbb8d673c7897f7U, 0xbb961506bb5bf593U, 0x0U,
  0xba5b3f09ba725c52U, 0x0U, 0x3c9c020f00000000U, 0x3bd330edU,
  0x3b9b4e6f3c2e32b6U, 0x3c11bfde00000000U, 0x3b945cd73c07958fU, 0x3bd8c8a5U,
  0x3bfeb9a700000000U, 0x3bbd8d4b3bf98fa8U, 0x0U, 0x3c033bff00000000U,
  0x0U, 0x3c029e6fU, 0x0U, 0x0U,
  0x3cd8be983d1b6a74U, 0x3c92a0813ce8ab37U, 0x3c86579eU, 0x3c85a8afU,
  0x3cb1896dU, 0x3caa2224U, 0x3cc365f600000000U, 0x3c9da5753cb3cfecU,
  0x0U, 0x3cad5f073ccd8ab6U, 0x3cae35c2U, 0x0U,
  0x0U, 0x3ccc8375U, 0x3cd5005bU, 0x3cd8db6a00000000U,
  0x0U, 0x3da011523d8f0618U, 0x3d1011bb3d1b606cU, 0x3cfb41deU,
  0x0U, 0x3d2910003d80d21eU, 0x3d3e0fdc00000000U, 0x0U,
  0x3d6d6356U, 0x3d936131U, 0x0U, 0x3c809b2100000000U,
  0xb89350863bbb691dU, 0xbb33e107baea9275U, 0xba178bcc00000000U, 0x0U,
  0x0U, 0x3ba23879U, 0x3c62e73d3bc71b2cU, 0x0U,
  0x3bd704623c01b8d3U, 0x3c0fb03000000000U, 0x0U, 0x3c17c536U,
  0x3c4b7e83U, 0x3d8f44b900000000U, 0x3c8a92043c85a8afU, 0x0U,
  0x3c982f6aU, 0x3d2386063d88f62cU, 0x3ce8ab373cd48bb9U, 0x3c94a5f93c9b9c11U,
  0x3cc4c66500000000U, 0x0U, 0x3ca2fef8U, 0x3cbe1c673cc3a495U,
  0x3cb131e3U, 0x0U, 0x3cf6799eU, 0x0U,
  0x3cdbdf0a3ced67eaU, 0x3ccd4a22U, 0x3cd39418U, 0x0U,
  0x3d1b1bf400000000U, 0x3d4d74d600000000U, 0x3d3321653d3d7a08U, 0x0U,
  0x3d60fa2f00000000U, 0x3d83e25d00000000U, 0x0U, 0x0U,
  0x3c37fc6f3c960258U, 0xb983e8ac3bd6c93dU, 0xbbb04c4aU, 0x3bbc7eee00000000U,
  0x3bb714e000000000U, 0x0U, 0x3bd2a27c3c511045U, 0x3c107ec000000000U,
  0x3bc6726a3bcb59fcU, 0x0U, 0x0U, 0x3c82ce7300000000U,
  0x3c816efb00000000U, 0x3c9ae45200000000U, 0x3c95cc5100000000U, 0x0U,
  0x3c812d7e3d812ec7U, 0x3c843a90U, 0x3d5bb8a600000000U, 0x3d26927b3d0afc12U,
  0x3c93b1df3cd4d8c2U, 0x3c824946U, 0x3c9f4aea00000000U, 0x3cd2fea100000000U,
  0x3cb62f93U, 0x3cb265f2U, 0x0U, 0x0U,
  0x3d2139cdU, 0x3d4bfdaa3d78f945U, 0x3d41cb2800000000U, 0x0U,
  0x0U, 0x3d887a743da3673fU, 0x3da05f8300000000U, 0x0U,
  0x3ca5b10100000000U, 0xbb0a8c953bb11f7aU, 0xbb462f26U, 0xba577e51U,
  0xba84559b00000000U, 0x3aaafe4cU, 0x0U, 0x3c0a9a1f3bd81c85U,
  0x3be6bfe600000000U, 0x0U, 0x3be732d33c653711U, 0x3c020ed4U,
  0x3c572f8f00000000U, 0x0U, 0x3c7957a3U, 0x3c8d37ee3c9686abU,
  0x0U, 0x3cb04dcdU, 0x3d7c660e00000000U, 0x3d110b4a3d648bb0U,
  0x3cbe028b3cd26d8cU, 0x3c9eecd83cc1b423U, 0x3c9c176500000000U, 0x3c8963453ca20432U,
  0x0U, 0x3cb628ed00000000U, 0x3caeddc6U, 0x3cbbaceb00000000U,
  0x0U, 0x3cd6bf9300000000U, 0x3cc89a563ce7fcbaU, 0x0U,
  0x0U, 0x3cdd4f4f3cebb573U, 0x0U, 0x3d20e5b800000000U,
  0x3d2b7a7800000000U, 0x0U, 0x3da314f900000000U, 0x3d6ea8773d837dc2U,
  0x3d7be84900000000U, 0x0U, 0x0U, 0x3c85b9883c858a08U,
  0xb781e47b3bc9e00cU, 0xbb7f3b66bb0a8c95U, 0xbb17aa3100000000U, 0xbb4d144cU,
  0x3a6cb56500000000U, 0x0U, 0x3b82104b00000000U, 0x3b9f991800000000U,
  0x0U, 0x3bc6fac7U, 0x3bcdbe4d3c9e8a43U, 0x3c02ff5300000000U,
  0x3c411b6800000000U, 0x3bf353e73c130c70U, 0x0U, 0x3c0cdf0a3c20a41eU,
  0x0U, 0x3c748d6e00000000U, 0x3c7ed22a00000000U, 0x3c79400e00000000U,
  0x0U, 0x0U, 0x3ccaea533d11b4ecU, 0x3ca5e3cc3cd083ebU,
  0x3c8464b03c9ede46U, 0x3c8e58e300000000U, 0x3c90e7ceU, 0x0U,
  0x3cb573eb00000000U, 0x0U, 0x3cc21406U, 0x3cb907543cc9d40fU,
  0x3ca493e6U, 0x3cbc5ec0U, 0x0U, 0x3cd4eb9000000000U,
  0x3cd2cbe1U, 0x0U, 0x3d8953263d8ac830U, 0x3d1d0198U,
  0x3d69346b3d7551a5U, 0x3d65fe493d80bdebU, 0x3d5447b8U, 0x0U,
  0x0U, 0x0U, 0x3c5eb7ad00000000U, 0xbb60301f3bd51aa0U,
  0xbbc87f89U, 0xba3cfc9d00000000U, 0xbac72640U, 0x0U,
  0x3c38f5f83c2f87b3U, 0x3baf440d3bf5293eU, 0x3bbd8d4b00000000U, 0x3bfda13000000000U,
  0x3bf8c872U, 0x3c158cb8U, 0x0U, 0x3bd0e115U,
  0x3c062190U, 0x0U, 0x3da3767200000000U, 0x3cb50f703c78d8ffU,
  0x0U, 0x3c9c660aU, 0x3c9325223c9ffc47U, 0x3c8902a2U,
  0x0U, 0x3ca8d7dcU, 0x3cd231833cd4d8c2U, 0x3cbb475aU,
  0x0U, 0x3cc0914a3d1e4eabU, 0x0U, 0x3d1a73ab3da05f83U,
  0x3d0cad913d0e0b90U, 0x0U, 0x3d485f0900000000U, 0x3d55fa893d3d2816U,
  0x0U, 0x3d7c080400000000U, 0x3d6b4a9c00000000U, 0x3d93825900000000U,
  0x0U, 0x0U, 0x3ba238793c79e82eU, 0xbbd9b283ba5d51afU,
  0xbb76ad1900000000U, 0x3a41e6d900000000U, 0x0U, 0x3c55732600000000U,
  0x3c00a1f63c12f4a7U, 0x3bca5ad53be5ed82U, 0x3bbbcccdU, 0x0U,
  0x0U, 0x0U, 0x3cd5504f3d11b4ecU, 0x3c90becb3ce82825U,
  0x3c9c05b500000000U, 0x3c900d103c84b99dU, 0x0U, 0x3cd18f7100000000U,
  0x3cae79053caa6167U, 0x3ccf4d71U, 0x3cc3f1c1U, 0x0U,
  0x3ca4ad3e00000000U, 0x3cc9a13600000000U, 0x0U, 0x0U,
  0x3d1b50293d91181aU, 0x3d4f4ab900000000U, 0x3d822e3700000000U, 0x3d5bb8a63d6db9ffU,
  0x3d6d3acf00000000U, 0x3d80fbf2U, 0x0U, 0x0U,
  0x3c60f80900000000U, 0x3adc07733bbbd761U, 0xbb5c9521U, 0x3bd51aa000000000U,
  0x3bcb6b0200000000U, 0x3bb0a839U, 0x0U, 0x3bfc4b403bf3e730U,
  0x3bc1df4d3bcf1e23U, 0x0U, 0x0U, 0x3bfd825f3c355543U,
  0x3bf3b9313c096c06U, 0x0U, 0x3c17fb4f00000000U, 0x3c04d6f8U,
  0x0U, 0x3d52dbe200000000U, 0x3d23659c3d67ed11U, 0x3cbda0db3cd8be98U,
  0x3c9ae4523cd44564U, 0x3ca5919900000000U, 0x3c80b0553c924ea2U, 0x3c7bffa600000000U,
  0x0U, 0x3c8408f600000000U, 0x3c8ef54fU, 0x3caf7b8700000000U,
  0x3ca1805d3c9dbef5U, 0x0U, 0x0U, 0x3cd5504f00000000U,
  0x3cb91f5a3cbe146fU, 0x0U, 0x3cf493af00000000U, 0x0U,
  0x3cf459fd3d318ba7U, 0x0U, 0x3d1d019800000000U, 0x3d2a3afd00000000U,
  0x0U, 0x3da314f900000000U, 0x3d68f7853da05f83U, 0x3d93333800000000U,
  0x0U, 0x0U, 0x3bd51aa03c7897f7U, 0xbb8dc77e3b11d5f2U,
  0xbb33da3500000000U, 0xba725c5200000000U, 0xbac758bcU, 0x0U,
  0x3ba2387900000000U, 0x3c005a6500000000U, 0x3be7efbb3bfd0290U, 0x3bb0aae2U,
  0x3bb2f893U, 0x3bd764daU, 0x3c1469f3U, 0x0U,
  0x3c614c5400000000U, 0x3c0775d63c1bfc4bU, 0x3c0dda4cU, 0x0U,
  0x0U, 0x3d1b39a53d4d1ea1U, 0x3cd4d8c23d1081daU, 0x3c9ae452U,
  0x3c93fec3U, 0x3c9ffc473cd21fa6U, 0x3c93c36f3cb666d1U, 0x0U,
  0x3cb9396500000000U, 0x3cab940eU, 0x0U, 0x3ce61ad400000000U,
  0x3cfebf7bU, 0x0U, 0x3d4f1b0300000000U, 0x3d4c242c00000000U,
  0x0U, 0x3d81c59a3d8f151fU, 0x3d8c3f46U, 0x3d91fb8aU,
  0x0U, 0x3c96104300000000U, 0xba6146b23c13489bU, 0xbbc75b1eU,
  0x3bd51aa000000000U, 0x3bcd50db00000000U, 0x3c15b5d4U, 0x3c11bfde00000000U,
  0x3bfb3a923bf4a608U, 0x3bab13b8U, 0x3be5ed82U, 0x0U,
  0x0U, 0x3c42f332U, 0x3c4e27e8U, 0x3c805d333c9fd2a9U,
  0x3c9ae45200000000U, 0x0U, 0x3c96e003U, 0x3d8f7c6a00000000U,
  0x3d0afc123d8e00d8U, 0x3cd322b33ce844c4U, 0x3c82857f3cc36f58U, 0x3c90c87800000000U,
  0x3c93b1df00000000U, 0x3ca6dc5100000000U, 0x3c9bae5cU, 0x3ca4e0d3U,
  0x3ca0fb4700000000U, 0x3cb788d700000000U, 0x0U, 0x3d024a6000000000U,
  0x3cd85e0c00000000U, 0x3ced67ea00000000U, 0x0U, 0x3d0e95b0U,
  0x3d21017900000000U, 0x3d65297300000000U, 0x3d3321653d3d826bU, 0x0U,
  0x0U, 0x3da1b00000000000U, 0x3d889111U, 0x0U,
  0x4000300020001U, 0x700060000U, 0xa0000U, 0x100000000e0000U,
  0x14000000000011U, 0x18000000160015U, 0x1c001b00000000U, 0x0U,
  0x24002300220021U, 0x28002700000025U, 0x2b00000029U, 0x300000002e0000U,
  0x3300000031U, 0x3700000000U, 0x39U, 0x400000003e003dU,
  0x4300000000U, 0x460045U, 0x4c0000004a0000U, 0x50004f00000000U,
  0x1000000000000U, 0x400030002U, 0x9000800000000U, 0xd0000000b000aU,
  0x110000000f0000U, 0x15001400000000U, 0x16U, 0x1d000000000000U,
  0x210000001f001eU, 0x25002400000022U, 0x2800270000U, 0x2c00000000U,
  0x300000002eU, 0x35000000000000U, 0x39003800370036U, 0x3aU,
  0x410040003f0000U, 0x45000000000000U, 0x46U, 0x2000100000000U,
  0x40003U, 0x80007U, 0xd000c0000U, 0x1200110000000fU,
  0x16001500000013U, 0x1900000017U, 0x0U, 0x22002100000000U,
  0x26002500240023U, 0x2a000000000027U, 0x2e0000002c002bU, 0x300000U,
  0x3500000000U, 0x37U, 0x3d0000003bU, 0x400000U,
  0x46004500440043U, 0x0U, 0x3000200010000U, 0x7000000000004U,
  0x90000U, 0xf000e000d000cU, 0x1200110000U, 0x1600000000U,
  0x18U, 0x1f001e001d0000U, 0x210020U, 0x27002600250024U,
  0x0U, 0x2f002e002d0000U, 0x33000000310030U, 0x0U,
  0x3a00000000U, 0x3f00000000003cU, 0x43000000410040U, 0x47000000450044U,
  0x48U, 0x0U, 0x4000300020001U, 0x8000700000000U,
  0xa0009U, 0x10000f000e0000U, 0x14000000000000U, 0x18001700000000U,
  0x1c000000000000U, 0x1f0000001dU, 0x220021U, 0x25U,
  0x2c002b002a0029U, 0x2dU, 0x3300320031U, 0x360035U,
  0x3b00000000U, 0x40003f00000000U, 0x4300420041U, 0x4700000045U,
  0x4b00000049U, 0x500000004e0000U, 0x0U, 0x3000200010000U,
  0x600000004U, 0xb000000090000U, 0xf00000000000cU, 0x1200000010U,
  0x1600150000U, 0x1b001a00000000U, 0x1cU, 0x23002200000020U,
  0x27000000000000U, 0x290028U, 0x2f002e0000002cU, 0x33000000310000U,
  0x37003600350000U, 0x3b000000390038U, 0x3cU, 0x4200000040U,
  0x4600000000U, 0x4b000000490000U, 0x4f000000000000U, 0x53000000510050U,
  0x550000U, 0x2000100000000U, 0x40003U, 0xa000000080000U,
  0xe00000000000bU, 0x12000000100000U, 0x140013U, 0x1a000000180000U,
  0x1e001d00000000U, 0x22000000200000U, 0x2500240023U, 0x2a002900000027U,
  0x2d002c0000U, 0x0U, 0x36003500000033U, 0x3a000000000000U,
  0x3d003c0000U, 0x4200000040003fU, 0x0U, 0x3000200010000U,
  0x7000000000004U, 0xb000000090000U, 0xcU, 0x1200000010U,
  0x1600000014U, 0x1b000000000018U, 0x1f0000001d001cU, 0x23002200000000U,
  0x24U, 0x2b002a00000028U, 0x2f002e00000000U, 0x30U,
  0x37003600350034U, 0x3a00000038U, 0x0U, 0x43000000410040U,
  0x4600000044U, 0x4b000000000048U, 0x4f0000004d0000U, 0x0U,
  0x4000300020001U, 0x700000000U, 0xb00000009U, 0xf000e0000U,
  0x1300120011U, 0x18000000000000U, 0x1c000000000019U, 0x2000000000001dU,
  0x24002300000000U, 0x28000000260025U, 0x2b00000029U, 0x300000002e002dU,
  0x3300000000U, 0x38003700360035U, 0x0U, 0x3e0000U,
  0x4300000041U, 0x48000000460000U, 0x4a0049U, 0x4e004dU,
  0x54005300000000U, 0x1000000000000U, 0x5000400030002U, 0x800000006U,
  0xd000000000000U, 0x1100000000000eU, 0x130000U, 0x1800170016U,
  0x1d0000001b0000U, 0x1f0000U, 0x2400230000U, 0x2800270026U,
  0x2c002b002aU, 0x30002f0000U, 0x35003400000000U, 0x39003800000000U,
  0x3b0000U, 0x400000003eU, 0x45004400000000U, 0x4800470046U,
  0x4c00000000U, 0x50004f004eU, 0x0U, 0x2000100000000U,
  0x6000000040003U, 0x80000U, 0xe0000000c000bU, 0x1200000000000fU,
  0x13U, 0x1a000000000017U, 0x1bU, 0x210020001fU,
  0x26000000000023U, 0x2a002900280000U, 0x2e002d002c002bU, 0x310000002fU,
  0x3500340000U, 0x3900000000U, 0x3e000000000000U, 0x3fU,
  0x46000000440000U, 0x4a000000480000U, 0x4bU, 0x510050004fU,
  0x1000000000000U, 0x30002U, 0x800000006U, 0xc000b000aU,
  0xeU, 0x1400130012U, 0x16U, 0x1d001c001b0000U,
  0x210000001f001eU, 0x25000000230000U, 0x2800000026U, 0x2d002c00000000U,
  0x3000000000U, 0x35003400000000U, 0x370036U, 0x3d003c00000000U,
  0x3eU, 0x45000000430042U, 0x0U, 0x4000300020001U,
  0x60005U, 0xc0000000a0000U, 0xf00000000U, 0x1300120011U,
  0x18000000000000U, 0x1c0000001a0000U, 0x20001f00000000U, 0x24002300220021U,
  0x28002700260025U, 0x2c000000000000U, 0x2f00000000U, 0x34000000000031U,
  0x38000000000035U, 0x3b00000000U, 0x40003f00000000U, 0x420041U,
  0x48004700000000U, 0x49U, 0x50004f00000000U, 0x1000000000000U,
  0x400030002U, 0x9000000070000U, 0xc000b0000U, 0xf0000U,
  0x15001400000012U, 0x19001800000000U, 0x1c00000000U, 0x2100000000001eU,
  0x25000000230022U, 0x29000000270026U, 0x2d002c0000002aU, 0x2f002eU,
  0x35000000000000U, 0x370000U, 0x3d0000003b0000U, 0x3f003eU,
  0x4400430000U, 0x0U, 0x4000300020001U, 0x8000000060000U,
  0xa0000U, 0xe000dU, 0x14000000000011U, 0x18000000000015U,
  0x1c001b001a0019U, 0x1e0000U, 0x0U, 0x2700260025U,
  0x2c0000002a0000U, 0x30002f002e002dU, 0x34003300320031U, 0x3700000035U,
  0x3c003b003a0000U, 0x3dU, 0x4300000041U, 0x4700460045U,
  0x4a0000U, 0x4f00000000U, 0x5300520000U, 0x0U,
  0x0U, 0x3000200010000U, 0x4U, 0xb000a00000008U,
  0xf0000000d000cU, 0x1200000000U, 0x17000000000000U, 0x1b001a00000018U,
  0x1f0000001d001cU, 0x2200210000U, 0x2600250000U, 0x2a00000028U,
  0x2f000000000000U, 0x310030U, 0x350000U, 0x3a00390000U,
  0x2000100000000U, 0x40003U, 0x80007U, 0xe0000000c0000U,
  0x12001100100000U, 0x140000U, 0x1a001900180000U, 0x0U,
  0x2200000020001fU, 0x2500240023U, 0x2900000000U, 0x2d0000002bU,
  0x3200000000002fU, 0x36000000000033U, 0x3a003900000000U, 0x3d0000003bU,
  0x410000003fU, 0x43U, 0x3000200010000U, 0x4U,
  0xa00090008U, 0xcU, 0x1200110010U, 0x1600000014U,
  0x18U, 0x1d001cU, 0x23000000210020U, 0x24U,
  0x2b002a00290000U, 0x2f002e002d002cU, 0x30U, 0x37003600000000U,
  0x3b000000000000U, 0x3d0000U, 0x4200410000U, 0x4600450044U,
  0x4b004a00000000U, 0x4cU, 0x2000100000000U, 0x40003U,
  0xa000900080000U, 0xd000c0000U, 0x12000000000000U, 0x16000000000013U,
  0x1a000000000017U, 0x1e001d0000001bU, 0x22000000000000U, 0x240000U,
  0x2a000000280027U, 0x2e002d002c002bU, 0x32000000000000U, 0x340000U,
  0x3a003900380000U, 0x3e003d003c003bU, 0x3fU, 0x0U,
  0x4a004900480000U, 0x4e000000000000U, 0x52000000500000U, 0x56005500540000U,
  0x5a000000000000U, 0x5c005bU, 0x1000000000000U, 0x5000400030002U,
  0x6U, 0xc000b0000U, 0x11001000000000U, 0x15001400000012U,
  0x0U, 0x1b001aU, 0x210020001f001eU, 0x230000U,
  0x270000U, 0x2d002c002b0000U, 0x2eU, 0x35003400330032U,
  0x39003800370000U, 0x3aU, 0x4000000000U, 0x4400000042U,
  0x470046U, 0x4aU, 0x50004f004eU, 0x5400000000U,
  0x5800000056U, 0x2000100000000U, 0x6000000040003U, 0x80000U,
  0xe00000000000bU, 0x12000000100000U, 0x1500140013U, 0x1900000000U,
  0x1e001d00000000U, 0x22002100200000U, 0x2500240023U, 0x280027U,
  0x2e000000000000U, 0x2fU, 0x3500000033U, 0x3a000000000037U,
  0x3e003d00000000U, 0x42004100400000U, 0x46004500440043U, 0x0U,
  0x0U, 0x3000200010000U, 0x4U, 0xb000a00090008U,
  0xd000cU, 0x1200110010U, 0x0U, 0x1b001a00000000U,
  0x1e00000000U, 0x23000000000020U, 0x27000000250024U, 0x2b002a00000028U,
  0x2cU, 0x33000000000030U, 0x3600000034U, 0x3b003a00000000U,
  0x3d0000U, 0x43004200410040U, 0x0U, 0x490048U,
  0x4e004d004cU, 0x53005200000000U, 0x54U, 0x2000100000000U,
  0x40003U, 0xa000900080000U, 0xd0000000bU, 0x12000000000000U,
  0x16000000140013U, 0x0U, 0x1e001d001c001bU, 0x2100000000U,
  0x26002500240000U, 0x2900280000U, 0x2d00000000U, 0x3200000000002fU,
  0x36000000340000U, 0x3900380037U, 0x3e003d00000000U, 0x3fU,
  0x4500440000U, 0x1000000000000U, 0x400030002U, 0x800070006U,
  0xb000aU, 0xeU, 0x15001400000000U, 0x1800000016U,
  0x1c0000001aU, 0x210020001f0000U, 0x22U, 0x270026U,
  0x2d000000000000U, 0x310030002f002eU, 0x35003400330032U, 0x36U,
  0x0U, 0x3f003eU, 0x45004400430000U, 0x0U,
  0x4d004c0000004aU, 0x4eU, 0x55000000000052U, 0x56U,
  0x4000300020001U, 0x60000U, 0xb00000009U, 0xe000dU,
  0x14001300120000U, 0x160015U, 0x1c0000001a0000U, 0x2000000000001dU,
  0x220000U, 0x260000U, 0x2c002b002a0029U, 0x2f002e0000U,
  0x320031U, 0x38003700360000U, 0x3c000000000000U, 0x4000000000003dU,
  0x44000000000000U, 0x48000000460045U, 0x4c000000000000U, 0x4e004dU,
  0x54005300520000U, 0x0U, 0x3000200010000U, 0x7000000000004U,
  0x90000U, 0xf0000000d000cU, 0x1200110000U, 0x17000000000014U,
  0x1b001a00000000U, 0x1e00000000U, 0x23000000000020U, 0x27000000250024U,
  0x2b002a00000000U, 0x2f0000002d0000U, 0x33003200000000U, 0x350034U,
  0x390038U, 0x3f003e003d0000U, 0x4200000000U, 0x4600450000U,
  0x4a00490000U, 0x4e004d0000U, 0x5200000000U, 0x57000000000054U,
  0x58U, 0x4000300020001U, 0x60000U, 0xb00000009U,
  0x10000f000e0000U, 0x1300120011U, 0x160000U, 0x1a0000U,
  0x2000000000001dU, 0x2300220021U, 0x0U, 0x2c002b002a0029U,
  0x30002f002e0000U, 0x34000000000000U, 0x38003700360035U, 0x0U,
  0x40003f00000000U, 0x44000000000000U, 0x48004700000000U, 0x4b00000049U,
  0x500000004e004dU, 0x520051U, 0x560000U, 0x5a0000U,
  0x3000200010000U, 0x7000600000004U, 0x0U, 0xf000e0000000cU,
  0x13001200000000U, 0x1600150014U, 0x1b000000000000U, 0x1d0000U,
  0x2200210020U, 0x2600250000U, 0x28U, 0x2f002e002d0000U,
  0x33003200310000U, 0x34U, 0x3b003a00000000U, 0x3e003d003cU,
  0x410000U, 0x4600000044U, 0x4b004a00000000U, 0x4cU,
  0x53005200510050U, 0x57000000000000U, 0x5b000000000000U, 0x5cU,
  0x4000300020001U, 0x8000000000005U, 0xb000a0000U, 0xe000dU,
  0x14001300000000U, 0x18000000000000U, 0x1a0000U, 0x200000001e001dU,
  0x24000000220000U, 0x28002700260000U, 0x2c000000000000U, 0x2e002dU,
  0x34000000320031U, 0x38000000000035U, 0x3a0000U, 0x400000003e0000U,
  0x420041U, 0x48000000460000U, 0x4a0000U, 0x3000200010000U,
  0x4U, 0xb000a00090008U, 0xf000e000d0000U, 0x0U,
  0x17000000000014U, 0x1b001a00000000U, 0x1e00000000U, 0x23000000000020U,
  0x27002600000024U, 0x2b002a00290028U, 0x2d0000U, 0x33000000000000U,
  0x34U, 0x3a00390038U, 0x3e00000000U, 0x43004200410040U,
  0x47000000000000U, 0x0U, 0x4000300020001U, 0x5U,
  0xc0000000a0000U, 0x100000000e000dU, 0x120000U, 0x18000000160000U,
  0x1c001b00000000U, 0x1f001e0000U, 0x220021U, 0x28000000260000U,
  0x2c0000002a0000U, 0x300000002e0000U, 0x34003300320000U, 0x35U,
  0x3b00000039U, 0x400000003e0000U, 0x44000000420000U, 0x45U,
  0x4c0000004a0049U, 0x1000000000000U, 0x400030002U, 0x9000800000000U,
  0xb000aU, 0x1100100000000eU, 0x0U, 0x19001800170000U,
  0x1d001c001b001aU, 0x0U, 0x25000000230000U, 0x2800000026U,
  0x2d002c002b0000U, 0x3100000000002eU, 0x35000000000000U, 0x370000U,
  0x3d003c003b0000U, 0x3f003eU, 0x45000000000042U, 0x4800470000U,
  0x4c004b0000U, 0x0U, 0x4000300020001U, 0x60000U,
  0xc000b000a0000U, 0xf00000000U, 0x14000000000011U, 0x18001700160015U,
  0x1b001a0019U, 0x0U, 0x24000000220000U, 0x28000000000000U,
  0x2c002b00000000U, 0x300000002e0000U, 0x34003300320031U, 0x360000U,
  0x3a0039U, 0x3e003dU, 0x44000000000000U, 0x4700460000U,
  0x4c0000004a0000U, 0x4e004dU, 0x54000000520000U, 0x560000U,
  0x3000200010000U, 0x600000004U, 0xa00090000U, 0xf000e00000000U,
  0x13001200000000U, 0x17000000150014U, 0x18U, 0x1d0000U,
  0x23000000210020U, 0x27000000000000U, 0x2b002a00000028U, 0x2d002cU,
  0x33000000310000U, 0x34U, 0x3a00390038U, 0x3f003e00000000U,
  0x4200410000U, 0x450044U, 0x4b004a00000000U, 0x4f00000000004cU,
  0x510000U, 0x5600000054U, 0x5a00590000U, 0x2000100000000U,
  0x40003U, 0x80007U, 0xe00000000000bU, 0x1200000010000fU,
  0x16000000000013U, 0x1a001900000017U, 0x1c0000U, 0x200000U,
  0x26002500000000U, 0x2a000000000027U, 0x2e002d002c002bU, 0x0U,
  0x36000000340000U, 0x3a000000380037U, 0x3e0000003c0000U, 0x400000U,
  0x46000000440000U, 0x4900480000U, 0x4e00000000004bU, 0x52000000500000U,
  0x56005500000000U, 0x1000000000000U, 0x5000400030002U, 0x6U,
  0xd0000000b0000U, 0x11001000000000U, 0x1400000012U, 0x19001800000000U,
  0x1c0000001aU, 0x21000000000000U, 0x25002400230022U, 0x29002800270026U,
  0x2c00000000U, 0x300000002eU, 0x35000000000000U, 0x370000U,
  0x3aU, 0x40003f003eU, 0x4400000000U, 0x4800470000U,
  0x2000100000000U, 0x6000000040003U, 0x80000U, 0xd0000000bU,
  0x12001100100000U, 0x16001500000013U, 0x1900000000U, 0x1bU,
  0x22000000200000U, 0x26002500000000U, 0x2a002900280027U, 0x2d0000002bU,
  0x310030002fU, 0x340000U, 0x37U, 0x3e0000003c0000U,
  0x42000000400000U, 0x4500000000U, 0x4900480000U, 0x4e004d00000000U,
  0x510000004fU, 0x1000000000000U, 0x400030002U, 0x9000800000000U,
  0xd000c000b0000U, 0x100000000eU, 0x1400000012U, 0x19000000170000U,
  0x0U, 0x210020001f0000U, 0x2400230022U, 0x2800270000U,
  0x2d00000000002aU, 0x31000000000000U, 0x330000U, 0x39000000000036U,
  0x3d003c003b003aU, 0x410000003f0000U, 0x430000U, 0x4800000046U,
  0x0U, 0x4000300020001U, 0x8000700000000U, 0x9U,
  0x10000f0000000dU, 0x120000U, 0x18001700160000U, 0x1c000000000019U,
  0x1dU, 0x2300000021U, 0x260000U, 0x2c002b002a0029U,
  0x30002f0000002dU, 0x3300000031U, 0x360035U, 0x0U,
  0x3f0000003dU, 0x4300420000U, 0x4700460045U, 0x4b00000000U,
  0x4dU, 0x3000200010000U, 0x4U, 0xa00090008U,
  0xf000e000d0000U, 0x13000000000000U, 0x150000U, 0x1b000000000018U,
  0x1f0000001d001cU, 0x210020U, 0x250024U, 0x2b002a00290000U,
  0x2f00000000002cU, 0x33003200000030U, 0x0U, 0x3a00000038U,
  0x3f00000000003cU, 0x43000000410000U, 0x47000000000044U, 0x48U,
  0x4cU, 0x4000300020001U, 0x8000700000000U, 0xb00000000U,
  0x10000f000e0000U, 0x1300000011U, 0x18001700000000U, 0x1b001a0000U,
  0x1dU, 0x24002300220000U, 0x0U, 0x2c002b002a0029U,
  0x2f002e002dU, 0x34000000000000U, 0x360035U, 0x3a0000U,
  0x3f0000003dU, 0x44004300000000U, 0x48000000460045U, 0x4c004b00000000U,
  0x4dU, 0x5300520000U, 0x55U, 0x3000200010000U,
  0x600000004U, 0xb000000000008U, 0xf000e00000000U, 0x1200110010U,
  0x14U, 0x18U, 0x1e0000001cU, 0x23000000000020U,
  0x27002600250024U, 0x2b002a00000000U, 0x2e002d0000U, 0x33000000310030U,
  0x0U, 0x3b000000390000U, 0x3f003e00000000U, 0x410000U,
  0x47004600450000U, 0x490048U, 0x4f004e004d0000U, 0x53000000000000U,
  0x550000U, 0x2000100000000U, 0x6000000040003U, 0xa000000080000U,
  0xe000d00000000U, 0x12000000000000U, 0x140013U, 0x1a001900180000U,
  0x1d00000000U, 0x22002100000000U, 0x26000000240023U, 0x2a000000280000U,
  0x2e0000002c0000U, 0x30002fU, 0x0U, 0x3a003900380037U,
  0x3e000000000000U, 0x40003fU, 0x4500440000U, 0x47U,
  0x3000200010000U, 0x7000000000004U, 0xa00000008U, 0xf000e00000000U,
  0x1200000010U, 0x150014U, 0x1a00000000U, 0x1f001e001d001cU,
  0x210000U, 0x27000000000024U, 0x28U, 0x2f00000000002cU,
  0x33003200310030U, 0x37003600350000U, 0x3b000000390000U, 0x3e003d0000U,
  0x43000000000000U, 0x4600000000U, 0x4b000000490000U, 0x4d004cU,
  0x510000U, 0x5600550000U, 0x2000100000000U, 0x6000500040003U,
  0x0U, 0xe000d000c0000U, 0xfU, 0x16000000140000U,
  0x1900180017U, 0x0U, 0x2200000020001fU, 0x26002500240000U,
  0x2a002900000027U, 0x2d002c0000U, 0x32000000000000U, 0x33U,
  0x3900000037U, 0x3e0000003c0000U, 0x42004100000000U, 0x440043U,
  0x1000000000000U, 0x400030002U, 0x9000800000000U, 0xc0000000aU,
  0x110010000f0000U, 0x15000000000000U, 0x16U, 0x1c001b001aU,
  0x2000000000U, 0x25002400000022U, 0x29000000000000U, 0x2d002c002b002aU,
  0x300000002eU, 0x3400000032U, 0x39000000000000U, 0x3aU,
  0x4100400000003eU, 0x42U, 0x49000000000046U, 0x4aU,
  0x4000300020001U, 0x8000700000000U, 0xc000b00000000U, 0xe0000U,
  0x14000000120011U, 0x1700000000U, 0x1c000000000019U, 0x1e0000U,
  0x24002300220021U, 0x28000000260000U, 0x2a0029U, 0x2f002e0000U,
  0x3300320031U, 0x38000000000000U, 0x3c0000003a0000U, 0x3e0000U,
  0x44004300420000U, 0x48000000000000U, 0x4c004b004a0000U, 0x4f0000004dU,
  0x0U, 0x3000200010000U, 0x7000000000004U, 0xb000000090000U,
  0xe000d0000U, 0x10U, 0x150014U, 0x1a00000018U,
  0x1f0000001d001cU, 0x2200000000U, 0x27002600250000U, 0x2b002a00000028U,
