/**
  ******************************************************************************
  * @file    clf_svc_data_params.c
  * @author  AST Embedded Analytics Research Platform
  * @date    2025-12-17T00:11:08+0800
  * @brief   AI Tool Automatic Code Generator for Embedded NN computing
  ******************************************************************************
  * Copyright (c) 2025 STMicroelectronics.
  * All rights reserved.
  *
  * This software is licensed under terms that can be found in the LICENSE file
  * in the root directory of this software component.
  * If no LICENSE file comes with this software, it is provided AS-IS.
  ******************************************************************************
  */

#include "clf_svc_data_params.h"


/**  Activations Section  ****************************************************/
ai_handle g_clf_svc_activations_table[1 + 2] = {
  AI_HANDLE_PTR(AI_MAGIC_MARKER),
  AI_HANDLE_PTR(NULL),
  AI_HANDLE_PTR(AI_MAGIC_MARKER),
};




/**  Weights Section  ********************************************************/
AI_ALIGNED(32)
const ai_u64 s_clf_svc_weights_array_u64[2759] = {
  0x0U, 0x3f800000U, 0x3f80000000000000U, 0x0U,
  0x0U, 0x0U, 0x3f80000000000000U, 0x0U,
  0x3f800000U, 0x3f800000U, 0x3f80000000000000U, 0x3f80000000000000U,
  0x0U, 0x0U, 0x0U, 0x3f800000U,
  0x3f800000U, 0x0U, 0x0U, 0x3f800000U,
  0x0U, 0x0U, 0x0U, 0x3f800000U,
  0x0U, 0x0U, 0x3f800000U, 0x3f800000U,
  0x0U, 0x3f800000U, 0x3f800000U, 0x3f800000U,
  0x3f800000U, 0x3f800000U, 0x0U, 0x0U,
  0x3f80000000000000U, 0x0U, 0x3f80000000000000U, 0x3f80000000000000U,
  0x0U, 0x3f80000000000000U, 0x3f800000U, 0x3f800000U,
  0x3f80000000000000U, 0x0U, 0x0U, 0x0U,
  0x0U, 0x3f800000U, 0x0U, 0x0U,
  0x3f80000000000000U, 0x3f800000U, 0x3f800000U, 0x0U,
  0x3f8000003f800000U, 0x3f800000U, 0x0U, 0x3f80000000000000U,
  0x3f800000U, 0x0U, 0x0U, 0x3f80000000000000U,
  0x0U, 0x3f8000003f800000U, 0x3f800000U, 0x0U,
  0x0U, 0x3f800000U, 0x3f80000000000000U, 0x3f80000000000000U,
  0x3f80000000000000U, 0x3f800000U, 0xbf80000080000000U, 0x8000000080000000U,
  0x8000000080000000U, 0x8000000080000000U, 0x80000000bf800000U, 0x80000000bf800000U,
  0x8000000080000000U, 0x8000000080000000U, 0x8000000080000000U, 0x8000000080000000U,
  0xbf800000bf800000U, 0x8000000080000000U, 0xbf80000080000000U, 0xbf800000bf800000U,
  0x8000000080000000U, 0x8000000080000000U, 0x80000000bf800000U, 0x8000000080000000U,
  0x8000000080000000U, 0xbf800000bf800000U, 0x8000000080000000U, 0xbf800000bf800000U,
  0x80000000bf800000U, 0x8000000080000000U, 0x8000000080000000U, 0x80000000bf800000U,
  0xbf800000bf800000U, 0x8000000080000000U, 0xbf80000080000000U, 0x8000000080000000U,
  0x80000000bf800000U, 0x8000000080000000U, 0x8000000080000000U, 0x8000000080000000U,
  0x8000000080000000U, 0x8000000080000000U, 0x8000000080000000U, 0x80000000bf800000U,
  0xbf800000bf800000U, 0xbf80000080000000U, 0x8000000080000000U, 0x8000000080000000U,
  0xbf80000080000000U, 0xbf80000080000000U, 0x80000000bf800000U, 0x8000000080000000U,
  0xbf800000bf800000U, 0xbf80000080000000U, 0x8000000080000000U, 0xbf80000080000000U,
  0x8000000080000000U, 0x8000000080000000U, 0x8000000080000000U, 0x80000000bf800000U,
  0x8000000080000000U, 0x80000000bf800000U, 0xbf80000080000000U, 0xbf80000080000000U,
  0x80000000bf800000U, 0x8000000080000000U, 0xbf80000080000000U, 0x8000000080000000U,
  0x80000000bf800000U, 0xbf80000080000000U, 0x8000000080000000U, 0x80000000bf800000U,
  0x80000000bf800000U, 0x80000000bf800000U, 0x8000000080000000U, 0x8000000080000000U,
  0x8000000080000000U, 0x8000000080000000U, 0x80000000bf800000U, 0xbf800000bf800000U,
  0x80000000bf800000U, 0xbf80000080000000U, 0xbf80000080000000U, 0xbf80000080000000U,
  0x80000000bf800000U, 0x80000000bf800000U, 0xbf800000bf800000U, 0xbf800000bf800000U,
  0x8000000080000000U, 0xbf800000bf800000U, 0xbf800000bf800000U, 0x80000000bf800000U,
  0xbf80000080000000U, 0x8000000080000000U, 0xbf80000080000000U, 0x8000000080000000U,
  0x8000000080000000U, 0xbf800000bf800000U, 0xbf80000080000000U, 0x80000000bf800000U,
  0x80000000bf800000U, 0xbf80000080000000U, 0xbf800000bf800000U, 0xbf800000bf800000U,
  0x8000000080000000U, 0x8000000080000000U, 0x80000000bf800000U, 0x8000000080000000U,
  0x8000000080000000U, 0x80000000bf800000U, 0x80000000bf800000U, 0xbf800000bf800000U,
  0xbf80000080000000U, 0xbf800000bf800000U, 0x8000000080000000U, 0x80000000bf800000U,
  0xbf800000bf800000U, 0xbf800000bf800000U, 0x8000000080000000U, 0xbf800000bf800000U,
  0x80000000bf800000U, 0x8000000080000000U, 0xbf800000bf800000U, 0x80000000bf800000U,
  0x8000000080000000U, 0xbf80000080000000U, 0xbf80000080000000U, 0x80000000bf800000U,
  0xbf800000bf800000U, 0xbf800000bf800000U, 0xbf800000bf800000U, 0xbf800000bf800000U,
  0xbf800000bf800000U, 0x80000000bf800000U, 0xbf800000bf800000U, 0x8000000080000000U,
  0xbed472d980000000U, 0xbf80000080000000U, 0xbf80000080000000U, 0x8000000080000000U,
  0x8000000080000000U, 0x8000000080000000U, 0xbf80000080000000U, 0xbf800000bf800000U,
  0x80000000befd731aU, 0x8000000080000000U, 0xbf800000bf800000U, 0xbf800000bf800000U,
  0xbf80000080000000U, 0xbf80000080000000U, 0xbf800000bf800000U, 0x8000000080000000U,
  0xbf80000080000000U, 0xbf80000080000000U, 0x80000000bf800000U, 0xbdb86835bf800000U,
  0x80000000bf800000U, 0xbf800000bf800000U, 0xbf800000bf800000U, 0xbf80000080000000U,
  0x80000000bf800000U, 0xbf800000bf800000U, 0xbf800000bf800000U, 0x80000000bf800000U,
  0xbf800000bf800000U, 0xbf800000bf800000U, 0x80000000bf800000U, 0xbf80000080000000U,
  0x80000000bf800000U, 0xbf800000bf800000U, 0xbf800000bf800000U, 0xbf800000bf800000U,
  0xbf80000080000000U, 0xbf80000080000000U, 0xbf800000bf800000U, 0xbf80000080000000U,
  0xbf80000080000000U, 0xbf80000080000000U, 0xbf80000080000000U, 0xbf800000bf800000U,
  0xbf800000bf800000U, 0x80000000bf800000U, 0xbf80000080000000U, 0x80000000bf800000U,
  0x80000000bf800000U, 0xbf80000080000000U, 0xbf80000080000000U, 0x8000000080000000U,
  0xbf800000bf800000U, 0xbf800000bf800000U, 0x80000000bf800000U, 0xbf80000080000000U,
  0xbf800000bf800000U, 0xbf800000bf800000U, 0x8000000080000000U, 0xbf800000bf800000U,
  0x80000000bf800000U, 0xbf800000bf800000U, 0x80000000bf800000U, 0xbf80000080000000U,
  0x80000000bf800000U, 0x8000000080000000U, 0xbf800000bf800000U, 0x8000000080000000U,
  0x8000000080000000U, 0xbf800000bf800000U, 0xbf80000080000000U, 0x3f80000080000000U,
  0x3f8000003f800000U, 0x3f8000003f800000U, 0x3f8000003f800000U, 0x3f8000003f800000U,
  0x3f8000003f800000U, 0x3f8000003f800000U, 0x3f8000003f800000U, 0x3f8000003f800000U,
  0x3f8000003f800000U, 0x3f8000003f800000U, 0x3f8000003f800000U, 0x3f8000003f800000U,
  0x3f8000003f800000U, 0x3f8000003f800000U, 0x3f8000003f800000U, 0x3f8000003f800000U,
  0x3f8000003f800000U, 0x3f8000003f800000U, 0x3f8000003f800000U, 0x3f8000003f800000U,
  0x3f8000003f800000U, 0x3f8000003f800000U, 0x3f8000003f800000U, 0x3f8000003f800000U,
  0x3f8000003f800000U, 0x3f8000003f800000U, 0x3f8000003f800000U, 0x3f8000003f800000U,
  0x3f8000003f800000U, 0x3f8000003f800000U, 0x3f8000003f800000U, 0x3f8000003f800000U,
  0x3f8000003f800000U, 0x3f8000003f800000U, 0x3f8000003f800000U, 0x3f8000003f800000U,
  0x3f8000003f800000U, 0x3f8000003f800000U, 0x3f8000003f800000U, 0x3f8000003f800000U,
  0x3f8000003f800000U, 0x3f8000003f800000U, 0x3f8000003f800000U, 0x3f8000003f800000U,
  0x3f8000003f800000U, 0x3f8000003f800000U, 0x3f8000003f800000U, 0x3f8000003f800000U,
  0x3f8000003f800000U, 0x3f8000003f800000U, 0x3f8000003f800000U, 0x3f8000003f800000U,
  0x3f8000003f800000U, 0x3f8000003f800000U, 0x3f8000003f800000U, 0x3f8000003f800000U,
  0x3f8000003f800000U, 0x3f8000003f800000U, 0x3f8000003f800000U, 0x3f8000003f800000U,
  0x3f8000003f800000U, 0x3f8000003f800000U, 0x3f8000003f800000U, 0x3f8000003f800000U,
  0x3f8000003f800000U, 0x3f8000003f800000U, 0x3f8000003f800000U, 0x3f8000003f800000U,
  0x3f8000003f800000U, 0x3f8000003f800000U, 0x3f8000003f800000U, 0x3f8000003f800000U,
  0x3f8000003f800000U, 0x3f8000003f800000U, 0x3f8000003f800000U, 0x3f8000003f800000U,
  0x3f8000003f800000U, 0x3f8000003f800000U, 0x3f8000003f800000U, 0x3f8000003f800000U,
  0x3f8000003f800000U, 0x3f8000003f800000U, 0x3f8000003f800000U, 0x3f8000003f800000U,
  0x3f8000003f800000U, 0x3f8000003f800000U, 0x3f8000003f800000U, 0x3f8000003f800000U,
  0x3f8000003f800000U, 0x3f8000003f800000U, 0x3f8000003f800000U, 0x3f8000003f800000U,
  0x3f8000003f800000U, 0x3f8000003f800000U, 0x3f8000003f800000U, 0x3f8000003f800000U,
  0x3f8000003f800000U, 0x3f8000003f800000U, 0x3f8000003f800000U, 0x3f8000003f800000U,
  0x3f8000003f800000U, 0x3f8000003f800000U, 0x3f8000003f800000U, 0x3f8000003f800000U,
  0x3f8000003f800000U, 0x3f8000003f800000U, 0x3f8000003f800000U, 0x3f8000003f800000U,
  0x3f8000003f800000U, 0x3f8000003f800000U, 0x3f8000003f800000U, 0x3f8000003f800000U,
  0x3f8000003f800000U, 0x3f8000003f800000U, 0x3f8000003f800000U, 0x3f8000003f800000U,
  0x3f8000003f800000U, 0x3f8000003f800000U, 0x3f8000003f800000U, 0x3f8000003f800000U,
  0x3f8000003f800000U, 0x3f8000003f800000U, 0x3f8000003f800000U, 0x3f8000003f800000U,
  0x3f8000003f800000U, 0x3f8000003f800000U, 0x3f8000003f800000U, 0x3f8000003f800000U,
  0x3f8000003f800000U, 0x3f8000003f800000U, 0x3f8000003f800000U, 0x3f8000003f800000U,
  0x3f8000003f800000U, 0x3f8000003f800000U, 0x3f8000003f800000U, 0x3f8000003f800000U,
  0x3f8000003f800000U, 0x3f8000003f800000U, 0x3f8000003f800000U, 0x3f8000003f800000U,
  0x3f8000003f800000U, 0x3f8000003f800000U, 0x3f8000003f800000U, 0x3f8000003f800000U,
  0x3f8000003f800000U, 0x3f8000003f800000U, 0x800000003f800000U, 0xbf80000080000000U,
  0x80000000bf800000U, 0x80000000bf800000U, 0xbf800000bf800000U, 0xbf800000bf800000U,
  0xbf25ff0580000000U, 0x8000000080000000U, 0x8000000080000000U, 0xbf800000bf800000U,
  0x8000000080000000U, 0x8000000080000000U, 0xbf80000080000000U, 0x80000000bf800000U,
  0xbf800000bf800000U, 0x80000000bf800000U, 0xbf800000bf800000U, 0xbf800000bf800000U,
  0x8000000080000000U, 0x80000000bf800000U, 0xbf800000bf800000U, 0xbf800000bf800000U,
  0x80000000bf800000U, 0x8000000080000000U, 0xbf80000080000000U, 0xbf800000bf800000U,
  0xbf800000bf800000U, 0xbf80000080000000U, 0xbf800000bf800000U, 0xbf800000bf800000U,
  0xbf80000080000000U, 0xbf800000bf800000U, 0x8000000080000000U, 0xbf800000bf800000U,
  0x8000000080000000U, 0xbf800000bf800000U, 0xbf80000080000000U, 0x8000000080000000U,
  0x8000000080000000U, 0xbf800000bf800000U, 0x8000000080000000U, 0xbf80000080000000U,
  0xbf800000bf800000U, 0x8000000080000000U, 0xbf80000080000000U, 0xbf800000bf800000U,
  0x80000000bf800000U, 0xbf800000bf800000U, 0xbf800000bf800000U, 0x8000000080000000U,
  0x8000000080000000U, 0x80000000bf800000U, 0x80000000bf800000U, 0x80000000bf800000U,
  0xbf80000080000000U, 0x80000000beb401f7U, 0xbf800000bf800000U, 0xbf800000bf800000U,
  0x80000000bf800000U, 0x80000000bf800000U, 0xbf800000bf800000U, 0xbf800000bf800000U,
  0xbf800000bf800000U, 0x80000000bf800000U, 0x80000000bf800000U, 0xbf80000080000000U,
  0xbf800000bf800000U, 0x8000000080000000U, 0x80000000bf800000U, 0xbf800000bf800000U,
  0xbf800000bf800000U, 0x8000000080000000U, 0xbf800000bf800000U, 0x80000000bf800000U,
  0x80000000bf800000U, 0xbf800000bf800000U, 0xbf80000080000000U, 0xbf800000bf800000U,
  0x80000000bf800000U, 0x8000000080000000U, 0x80000000bf800000U, 0xbf80000080000000U,
  0xbf800000bf800000U, 0x8000000080000000U, 0xbf80000080000000U, 0x8000000080000000U,
  0x8000000080000000U, 0xbf800000bf800000U, 0xbf800000bf800000U, 0xbf800000bf800000U,
  0x80000000bf800000U, 0x8000000080000000U, 0x8000000080000000U, 0xbf800000bf800000U,
  0x80000000bf800000U, 0x8000000080000000U, 0xbf800000bf800000U, 0x80000000bf800000U,
  0x80000000bf800000U, 0xbf800000bf800000U, 0x8000000080000000U, 0x8000000080000000U,
  0xbf80000080000000U, 0x80000000bf800000U, 0xbf80000080000000U, 0xbf80000080000000U,
  0xbf800000bf800000U, 0x80000000bf800000U, 0xbf800000bf800000U, 0x8000000080000000U,
  0x8000000080000000U, 0xbf800000bf800000U, 0xbf800000bf800000U, 0x8000000080000000U,
  0x80000000bf800000U, 0xbf800000bf800000U, 0x80000000bf800000U, 0xbf80000080000000U,
  0xbf800000bf800000U, 0xbf800000bf800000U, 0x80000000bf800000U, 0xbf800000bf800000U,
  0xbf800000bf800000U, 0x8000000080000000U, 0xbf800000bf800000U, 0xbf800000bf800000U,
  0x80000000bf800000U, 0x80000000bf800000U, 0x3d17152cbf800000U, 0x3d115eaa3d210bdbU,
  0x3d05f5903d0382aaU, 0x3d0820f63d098421U, 0x3cb64e183d06f9e5U, 0x3ca4166c3cc3d45bU,
  0x3c9dbd283c9cea7bU, 0x3ca35aad3ca6ebfdU, 0x3d6c1d293ca363f1U, 0x3d4d3f6c3d69cb98U,
  0x3d43e7333d3d511eU, 0x3d4a11773d49d513U, 0x3cd141723d481fbbU, 0x3cb3ac1a3cc97842U,
  0x3cb764b43ca486dfU, 0x3cad457e3cbf6d63U, 0x3cb36fb13caac7e0U, 0x3ca67efa3cc0eef0U,
  0x3c9c5b773c9ed9c3U, 0x3ca5f85c3ca6227dU, 0x3d6d6f7a3ca297e0U, 0x3d602ce23d7b0f98U,
  0x3d4683543d525619U, 0x3d55f63e3d4f3f4aU, 0x3ce7a0473d5e3d08U, 0x3cd1c0cb3cf15cbdU,
  0x3ccc9f7b3cc2d416U, 0x3cc9ed293cd412a2U, 0x3d6e22263cc7a24eU, 0x3d5ef8133d7cc5c1U,
  0x3d491a063d54b07bU, 0x3d5996773d4f63d6U, 0x3ceaf3a13d5c5fe0U, 0x3cd19d0e3cf1b08dU,
  0x3ccd4d0e3cc31c1cU, 0x3cc9a45f3cd7df5cU, 0x3d09e1a63cc872a3U, 0x3cfa16353d0e75c4U,
  0x3cf9459e3cea2850U, 0x3cf520d73cfef43dU, 0x3d2510793cee7f28U, 0x3d0bdc7c3d21b888U,
  0x3d068d9e3d051c31U, 0x3d0bbcd53d0c121eU, 0x3d0611173d08fcfbU, 0x3d029b093d174d95U,
  0x3ce24d0a3cf6851aU, 0x3d01c3c43cec163eU, 0x3bcb40f63cfefe90U, 0x3be383d63bfb5dbdU,
  0x3c058bd23bdc9530U, 0x3bdc03fe3c08d8beU, 0x3d063d073bc178a3U, 0x3d00a79f3d16e278U,
  0x3d0c74df3cf3a36fU, 0x3cffa7cc3cf52b1cU, 0x3ce819d83cfa6282U, 0x3ccfde6a3cefb9d4U,
  0x3ccaedb83cc0b83eU, 0x3cc7bf4e3cd38a35U, 0x3c906dac3cc7a24eU, 0x3c78c29d3c8287f3U,
  0x3c8877d63c5bdce9U, 0x3c7123633c85d984U, 0x3cf7f3083c58dcc0U, 0x3ce32f5f3d03479fU,
  0x3cd86a013cd1820dU, 0x3cd99d073cddd0b4U, 0x3cb42b7f3cd7c692U, 0x3ca7875d3cc43b65U,
  0x3ca0d6863c9efd28U, 0x3ca431db3ca2ec45U, 0x3cf684803ca264dfU, 0x3ce3d1253d044fa8U,
  0x3cdc101d3cd3355eU, 0x3cda91333ce1179dU, 0x3d14d40f3cda3d88U, 0x3d0e1cc53d1e64c6U,
  0x3d067a9c3d01301bU, 0x3d08dc063d071a11U, 0x3bcf172c3d05b52cU, 0x3bd0a9573bfbac41U,
  0x3c0515953be9bffaU, 0x3be6c4353c07121fU, 0x3cb993d03bc0b93eU, 0x3cab2e3b3cca84beU,
  0x3ca0b1e33ca272caU, 0x3ca8de963ca948ceU, 0x3c8baf7e3ca4c946U, 0x3c7c4ad43c8717e2U,
  0x3c88f0f33c602fe5U, 0x3c68541c3c887205U, 0x3ce4c7493c5cbafbU, 0x3cc69a863ce6175aU,
  0x3cc702d53cbd599fU, 0x3cc25ad13ccd6b22U, 0x3d26ec023cc495e3U, 0x3d0caec73d214c99U,
  0x3d065aed3d06a3b0U, 0x3d0b26d73d0c57f2U, 0x3cdd9a753d08c6b5U, 0x3ccfbab13cec5fd9U,
  0x3cc77e923cb8dd9fU, 0x3cc120603cce3759U, 0x3cecb7be3cc42defU, 0x3ccfcc8d3cf3a7a2U,
  0x3ccd72423cc43c49U, 0x3ccaaf4f3cd7ce48U, 0x3d26149a3cc7061dU, 0x3d0bd3583d23fff1U,
  0x3d06153c3d065912U, 0x3d0bfb593d0cf51aU, 0x3d6d1adf3d0a0c8cU, 0x3d6097173d7c8089U,
  0x3d47fceb3d53fba0U, 0x3d5865303d4fe3c9U, 0x3c97e3113d5e969cU, 0x3c8f0ae33c9bcc1fU,
  0x3c89fb793c828fe0U, 0x3c883af23c906069U, 0x3d0928b53c83f97fU, 0x3cf493273d0f9fecU,
  0x3cf5ee1f3ce74afeU, 0x3cf29fa03d001e8fU, 0x3c907e8c3ced0acdU, 0x3c8e6d803c98125cU,
  0x3c8ba3ae3c84330eU, 0x3c86c0913c8b9035U, 0x3cdf908f3c82688dU, 0x3ccaa4013ced072dU,
  0x3cc04cf63cb75390U, 0x3cc63b823ccd050cU, 0x3d0b04733cc01faeU, 0x3cf961293d0fca89U,
  0x3cf691983cebbc12U, 0x3cf758963d0178fbU, 0x3d6d5cac3cf02913U, 0x3d4db1e03d6a5f8dU,
  0x3d4676163d3e0219U, 0x3d48c99f3d4dc8dfU, 0x3d1703673d489442U, 0x3d0ef8863d210111U,
  0x3d074bc73d020ee9U, 0x3d0702573d09db43U, 0x3d8d0edc3d089072U, 0x3d7afe513d8e7bd1U,
  0x3d68877c3d682fd8U, 0x3d78d3603d747a1bU, 0x3cb9d83c3d74cb30U, 0x3ca0601d3cb2bcfdU,
  0x3ca22c8a3c91e50eU, 0x3c973e483caa6695U, 0x3d1957233c9157c5U, 0x3d100b653d206a0dU,
  0x3d0674463d025938U, 0x3d06478b3d0b8681U, 0x3d6e512f3d06f9e5U, 0x3d4e37723d6b87a6U,
  0x3d460c2b3d3e0219U, 0x3d49a8853d4d2dbcU, 0x3cf7f3083d48771fU, 0x3ce496e93d046f5aU,
  0x3cdb9ff63cd25baaU, 0x3cdbb6533cdcd014U, 0x3d6de0503cda7226U, 0x3d4e70b43d6ad168U,
  0x3d45e4753d3e6478U, 0x3d4a2bb53d4cdba1U, 0x3d6a47c33d489442U, 0x3d4b46523d6b930bU,
  0x3d4327953d3f2952U, 0x3d4a11773d4a78f7U, 0x3d03b3443d46885aU, 0x3d02f5e83d15ac07U,
  0x3cdd9f073cf9fba5U, 0x3cfeb0183ceb47f0U, 0x3cb84ee03d00f78cU, 0x3cabdebf3cc7b224U,
  0x3ca2fc453ca0eceeU, 0x3ca6e7b23ca5f020U, 0x3bd5be683ca363f1U, 0x3bf6edfc3bfac0b8U,
  0x3c0383a23be04479U, 0x3bd8cae33c0b82eeU, 0x3d26f4fc3bc2f77dU, 0x3d0c9c7c3d223a18U,
  0x3d0725bd3d06466cU, 0x3d0bc9553d0c8397U, 0x3d393b743d0a27b8U, 0x3d2c01f43d47bb1aU,
  0x3d1eca163d251a9aU, 0x3d287a5c3d22548fU, 0x3d0a65ce3d2b769eU, 0x3cf7e51a3d0e408cU,
  0x3cf8ae933cea2850U, 0x3cf727323cffb2a0U, 0x3d06b8143cf05e58U, 0x3d029b093d17a34cU,
  0x3d0c28873cf31005U, 0x3d004fcc3cf21220U, 0x3cd210553cfbd9a6U, 0x3cb65ea23ccde8d9U,
  0x3cbc1bc23ca57f5bU, 0x3cad2d7f3cc35533U, 0x3c8f3df33caac7e0U, 0x3c79b6013c88e791U,
  0x3c8791c53c6623deU, 0x3c70c5573c86e33fU, 0x3cfad09d3c6160abU, 0x3cdf1da43d00d94bU,
  0x3cdd15e03ccef5bfU, 0x3cd76bc63ce0f55bU, 0x3bcbc3e73cd47ea4U, 0x3bee6a533c00c039U,
  0x3c0d675b3be1d8deU, 0x3bdf99143c064f54U, 0x3d266e573bc178a3U, 0x3d0be5a03d22d150U,
  0x3d0778293d06a3b0U, 0x3d0ccffe3d0e1564U, 0x3da1bc8b3d0a27b8U, 0x3d8e28003da26da9U,
  0x3d8518a13d8384e4U, 0x3d8ac2773d8975b3U, 0x3d223ad43d8b5636U, 0x3d091d483d1f3170U,
  0x3d0427703d06ee52U, 0x3d0b58d43d0dbe02U, 0x3c9728fe3d07b787U, 0x3c8983873c9ad87cU,
  0x3c8ad59b3c819b81U, 0x3c871f243c8f9874U, 0x3cf8c48f3c85589cU, 0x3ce66a8d3d056276U,
  0x3cda816b3cd1820dU, 0x3cd8d9c13ce2a1b7U, 0x3cad5fc33cd99fb5U, 0x3c9859043caac036U,
  0x3c9880743c88296fU, 0x3c8c34ea3c9875baU, 0x3d0992613c845dcaU, 0x3cfe0cd43d0f8a9eU,
  0x3cf780963ceb72a3U, 0x3cf771483d00ffb2U, 0x3c96f6403cef1ed4U, 0x3c8c95873c991a09U,
  0x3c8e63303c828fe0U, 0x3c85d4303c8ffc6dU, 0x3d190ff53c86b7ffU, 0x3d0f6f9c3d21ee83U,
  0x3d0830183d02b623U, 0x3d074d163d08aa62U, 0x3bda9baa3d078155U, 0x3be51c0c3c00c039U,
  0x3c0ab8c33bdf36ecU, 0x3bdd17163c105627U, 0x3d6e5a973bc535ebU, 0x3d4ef6573d6a81b4U,
  0x3d4641203d3e2971U, 0x3d49f73a3d4c00c5U, 0x3cb33c7b3d46df96U, 0x3ca4a34f3cc16a74U,
  0x3c9cedcc3c9d0dd8U, 0x3ca402083ca43bc3U, 0x3d0928b53ca2cae2U, 0x3cfcfced3d0bd7d6U,
  0x3cf21a053ce4dc74U, 0x3cf9781b3cff7eb2U, 0x3ccf5eeb3ceb61a0U, 0x3cb226d73ccaae0eU,
  0x3cb867313ca57f5bU, 0x3caa8df13cbff4e1U, 0x3ce2befd3caac7e0U, 0x3cccdec83ced072dU,
  0x3cc9170f3cbd35b6U, 0x3cc49fb93ccf7aceU, 0x3cb70a133cc7a24eU, 0x3cb026043cc93a51U,
  0x3c9fa5483ca05f3cU, 0x3caaedd63ca58b67U, 0x3d8bc1293ca46327U, 0x3d8026223d8fd2b7U,
  0x3d6a68fc3d68d3bdU, 0x3d79690d3d744b40U, 0x3d0462c53d73f4fbU, 0x3d03d92c3d1641ddU,
  0x3ce0661d3cfb237dU, 0x3cffc0923cea8adfU, 0x3c9826bd3d003b56U, 0x3c8cb87a3c975bdfU,
  0x3c85de0d3c7d3869U, 0x3c8691493c8b9035U, 0x3da242dc3c85bcfbU, 0x3d8f04f43da24f42U,
  0x3d842cf83d8418a0U, 0x3d8a98be3d895dc8U, 0x3da2b55b3d8b95d3U, 0x3d8d9b853da20c64U,
  0x3d8529f83d836fccU, 0x3d8990bc3d89e3c5U, 0x3d3c77273d8c053bU, 0x3d2d8a243d43f6d2U,
  0x3d1d5b023d22dafdU, 0x3d2993b73d2103fdU, 0x3ca8fc1c3d2b769eU, 0x3c9483453ca6afacU,
  0x3c94cb3a3c86cb6eU, 0x3c8d0a2d3c994f00U, 0x3cfd117c3c84f444U, 0x3cdea0023d02de11U,
  0x3cda2a3b3ccd8bb2U, 0x3cd99d073cdd7b27U, 0x3c8ddbc23cdadb68U, 0x3c79933b3c877ca8U,
  0x3c844ede3c666931U, 0x3c71df803c8ab7f3U, 0x3ce5cb8f3c609a48U, 0x3cca15603ceb3b1fU,
  0x3cc300943cbc1680U, 0x3cc746183cd0f181U, 0x3ccdf5373cc4c9e0U, 0x3cb10bdc3ccad75fU,
  0x3cbadb543ca8b0a0U, 0x3cae7d873cc158a7U, 0x3d39f1373cab94e1U, 0x3d2c7b4e3d4641f1U,
  0x3d1ccd6c3d23ade7U, 0x3d286d933d22f417U, 0x3cbbd99d3d29ec11U, 0x3c9f58573cb30ee7U,
  0x3ca0810b3c90856cU, 0x3c970eb23caa44f4U, 0x3c916add3c8e9517U, 0x3c792aeb3c8974c0U,
  0x3c85de0d3c66f3daU, 0x3c6a29a43c8a32e5U, 0x3cb8b5793c5d1e10U, 0x3cb0fa2e3cc6ba90U,
  0x3ca0b1e33ca1573aU, 0x3cabf59e3ca46e19U, 0x3c9311083ca52f6cU, 0x3c8ba0e93c98f176U,
  0x3c88a8473c810fe9U, 0x3c87ad073c910714U, 0x3d8bcfa83c848ff1U, 0x3d7de9993d8f5c66U,
  0x3d6a7d583d68e83bU, 0x3d7712bf3d72af2cU, 0x3d03aa7e3d73b7d1U, 0x3d0028993d148b3dU,
  0x3d0b30843cf0c2c8U, 0x3cf7bb603cf245d1U, 0x3cb8b5793cf880a2U, 0x3ca167f93cb68019U,
  0x3ca5d9e63c8fb28dU, 0x3c98bb153cacb34aU, 0x3d6a9c373c8ec788U, 0x3d4e54133d6bc09fU,
  0x3d42f9583d3f8bcdU, 0x3d4a38d43d4b4a7cU, 0x3d0387673d489442U, 0x3d00712d3d17029aU,
  0x3d0c2ee43cf09df9U, 0x3cf946ad3cf4d4e0U, 0x3d0315613cf7e01eU, 0x3d02009a3d15ec3cU,
  0x3ce385563cf9b1b6U, 0x3d012eee3ce910e3U, 0x3d0523eb3cff3446U, 0x3d03d0143d176db9U,
  0x3cdf21ac3cfa4597U, 0x3cff8f063cea9c0fU, 0x3d170c493cff3446U, 0x3d0ed3e43d1f87a6U,
  0x3d0654973d01c49fU, 0x3d06b79c3d0912e3U, 0x3ce2befd3d07300fU, 0x3ccb682a3ce99926U,
  0x3cc44e443cbb1b50U, 0x3cc49fb93ccd050cU, 0x3da19eb53cc25a6eU, 0x3d8db4993da17a97U,
  0x3d8467db3d8399fcU, 0x3d89c8483d88d7e4U, 0x3d0694ea3d8b4651U, 0x3d027fc73d163728U,
  0x3d0de6173cf5a7b2U, 0x3cfd6e383cf4e61fU, 0x3cac1c1f3cf956bcU, 0x3c936aff3ca6355bU,
  0x3c94394d3c88927bU, 0x3c8ee4563c9d086aU, 0x3ce5977f3c86215eU, 0x3ccbc1573cea93e7U,
  0x3cc3a1393cbc5e49U, 0x3cc518d03cd18ad9U, 0x3d3c25373cc32a26U, 0x3d2d1a0c3d459bacU,
  0x3d1dc2033d246dcaU, 0x3d2893ed3d236759U, 0x3cd061613d2b92d3U, 0x3cb5e2a53ccf0a74U,
  0x3cbce1033ca7db4eU, 0x3caa46073cc09e46U, 0x3ccee6553cacfbdbU, 0x3cb11d8b3cc98ce9U,
  0x3cb7badb3ca57f5bU, 0x3ca9e6283cc1cf48U, 0x3d8cb2ea3cacfbdbU, 0x3d7dcc133d8f2d18U,
  0x3d6a62323d69633aU, 0x3d7771dc3d729318U, 0x3ce7c3023d75270eU, 0x3cd47a173cf392aaU,
  0x3cce9bec3cbfe075U, 0x3cc8204a3cd4f05fU, 0x3c8cce013cc8dad7U, 0x3c7789bc3c87f59bU,
  0x3c8976333c5f1b0aU, 0x3c63edea3c83e785U, 0x3bd32f353c5a05b5U, 0x3bf599503bfe6efcU,
  0x3c0602133bda7a5aU, 0x3bdd72ca3c07f56aU, 0x3cfb050a3bc3b6f2U, 0x3ce7e4763d05382bU,
  0x3cd93da23cd15dcbU, 0x3cdc92413cdf8db9U, 0x3cb509823cdadb68U, 0x3ca9751e3cc1fa95U,
  0x3c9e98c63c9cc71fU, 0x3ca4d9453ca3c652U, 0x3d3984263ca3ca02U, 0x3d2f256b3d45e941U,
  0x3d1f10f83d24f431U, 0x3d28141b3d229297U, 0x3ce6e1493d2b05d1U, 0x3ccf851d3cf1da76U,
  0x3cce9bec3cc41841U, 0x3cc912d03cd59afcU, 0x3cdf4b483cc76e3cU, 0x3ccf3daf3ce6948fU,
  0x3cc3c64d3cba8bd5U, 0x3cc0f0033cca7ed1U, 0x3c941f563cc1beb3U, 0x3c8aac5e3c9ad87cU,
  0x3c89ef5b3c84330eU, 0x3c845a293c93b2cfU, 0x3cad5fc33c86ea37U, 0x3c93c2923ca69b49U,
  0x3c97686d3c873468U, 0x3c8cab623c9c9343U, 0x3ca642e53c85589cU, 0x3c908bbf3caad4a1U,
  0x3c9408aa3c831b90U, 0x3c8fd18b3c9800c2U, 0x3d8bfb273c83631aU, 0x3d7efd453d8ffc25U,
  0x3d6c58b23d6925b9U, 0x3d7545283d7061f0U, 0x3d6c268e3d748df7U, 0x3d5df3b43d7c3b54U,
  0x3d46e6a83d536f0bU, 0x3d57edcf3d4e08c5U, 0x3da260b93d5d3083U, 0x3d8e41183da1e1daU,
  0x3d857d393d84a1f5U, 0x3d8a9fb23d894115U, 0x3d1663823d8b2687U, 0x3d0daeef3d21ee83U,
  0x3d061b923d008920U, 0x3d071b413d0b40b7U, 0x3ca8eb193d07d2a2U, 0x3c8f96d13caaabcbU,
  0x3c94519f3c833e7eU, 0x3c8f2b7e3c950090U, 0x3bcc46da3c874eacU, 0x3be2b7c03c058265U,
  0x3c080a7c3bde2967U, 0x3bdd17163c111947U, 0x3d03b3443bc0b93eU, 0x3d014aff3d158bedU,
  0x3cdebde03cf76299U, 0x3cff8f063ce9cddbU, 0x3cd1752a3cff3446U, 0x3cb578633ccea302U,
  0x3cb71add3ca79437U, 0x3caccd843cbeb321U, 0x3cb5a33e3caa6169U, 0x3cb0c5223cc9a18fU,
  0x3c9d73f73c9d5493U, 0x3ca81ef73ca97b3aU, 0x3d257c173ca165f2U, 0x3d0db8163d231223U,
  0x3d06f3063d04bf10U, 0x3d0b33563d0d9b0fU, 0x3d8c5bd93d09d635U, 0x3d7e1acf3d8fbb0cU,
  0x3d6cd9d33d6a074fU, 0x3d766fc23d74d7d6U, 0x3d8ca4663d73993dU, 0x3d7fa4bc3d8fbb0cU,
  0x3d6bf2c83d6a6de9U, 0x3d76987f3d74f3f6U, 0x3cb6d6ce3d75086dU, 0x3ca837ab3cc58537U,
  0x3c9ee1fe3c9f675bU, 0x3ca491843ca6db31U, 0x3d0779853ca5c8afU, 0x3d010b743d17ee51U,
  0x3d0e25c93cf718c2U, 0x3cff2bef3cf4e61fU, 0x3cb781b93cfa9814U, 0x3cacc4463cc91106U,
  0x3ca38ef03ca03bd1U, 0x3ca956613ca750c1U, 0x3caba4eb3ca3ca02U, 0x3c96fa413ca2ddbfU,
  0x3c96382c3c88927bU, 0x3c90a71b3c977b1aU, 0x3c8d76973c842ba4U, 0x3c7d3e5c3c8b0849U,
  0x3c8939a13c643ebbU, 0x3c6b43713c898c9dU, 0x3cb74e713c62ed93U, 0x3c9cf1363cb29408U,
  0x3ca590813c91e50eU, 0x3c991a523ca91662U, 0x3d06084e3c8ef9faU, 0x3d022e053d16acedU,
  0x3cde02c93cf76299U, 0x3cfec8dc3ce8877cU, 0x3da251cb3cfe5d77U, 0x3d8d69603da13de0U,
  0x3d8564f03d84b719U, 0x3d8a22953d898da0U, 0x3da28d863d8bc58eU, 0x3d8d645c3da143f2U,
  0x3d84d6c13d835ab5U, 0x3d89eb013d8a186fU, 0x3d6d66133d8bd579U, 0x3d5f3b9b3d7dcf39U,
  0x3d4524943d548848U, 0x3d5a43233d4baebbU, 0x3d0817dc3d5cf4e2U, 0x3d0276b13d157688U,
  0x3d0b70183cf359b9U, 0x3cfcc0f83cf5c65cU, 0x3cb8f9e13cfba40aU, 0x3c9d490f3cb61993U,
  0x3ca4b45c3c92fe88U, 0x3c96682d3ca97b3aU, 0x3d6d66133c8dfdcdU, 0x3d5e10a03d7caeaeU,
  0x3d475de33d52f69aU, 0x3d59046d3d4dc8dfU, 0x3d394da03d5ef039U, 0x3d2bdca03d4877d6U,
  0x3d1f44873d242105U, 0x3d2a7a183d248c17U, 0x3cb3e7333d2a5cb9U, 0x3ca7bc403cc05eddU,
  0x3c9cb0d23c9cc71fU, 0x3ca402083ca88ff2U, 0x3d3a0c7d3ca330eaU, 0x3d2de7933d45c801U,
  0x3d1ca0633d233ad6U, 0x3d28ba483d2381f4U, 0x3cb770a13d2b05d1U, 0x3c9d490f3cb2569bU,
  0x3ca113963c8ff8d5U, 0x3c96c7533ca92731U, 0x3d09e1a63c8e9517U, 0x3cf8e2743d0d6bc4U,
  0x3cf4b3d83ce894ddU, 0x3cf56add3cfeaf05U, 0x3cb982b53ced7528U, 0x3c9eba1e3cb29408U,
  0x3c9fc9e73c91120cU, 0x3c95f1423cabd892U, 0x3cb6b4a03c8ff64bU, 0x3caf51e93cc4f4e6U,
  0x3c9d988f3ca01866U, 0x3cabdda23ca6227dU, 0x3d6af0ae3ca5fbc9U, 0x3d5f284f3d7ce85fU,
  0x3d486d9c3d52ba67U, 0x3d59e6263d4d523bU, 0x3bfa4fc93d5bcaf8U, 0x3bc21bb03c008331U,
  0x3b9e60a93bd96985U, 0x3baaaa973ba5eb78U, 0x3c93bc5a3be7cb15U, 0x3c993d563ca52ca7U,
  0x3c8af3ce3c901401U, 0x3c7882e93c71eb81U, 0x3c0a24133c960bf1U, 0x3bc671a43bd95ed0U,
  0x3b99d7723bce1657U, 0x3bb434ad3b99e9a9U, 0x3bb4191a3bdaa64eU, 0x3bca82933c068199U,
  0x3bc259983c059a95U, 0x3bcfc5d13bd47f84U, 0xbbbb49963c05bd70U, 0xbb6f5b0cbb959df1U,
  0xbb7fc039bb0d33c9U, 0xbb5c22ccbb97ffd0U, 0x3bf7aa2dbb367eebU, 0x3bc376823bfc4beeU,
  0x3b9915f43bde453bU, 0x3ba52ab83ba200ccU, 0x3bb634303be63ee8U, 0x3bc787303c077407U,
  0x3bc40e833c066b10U, 0x3bd082443bcefe47U, 0xbafb1ee13c06848fU, 0xbb109d10bacc336aU,
  0xbb112f60b83f31f0U, 0xbae7508abb0dc910U, 0x3bdad9b8ba60c058U, 0x3c1c8a193c3002efU,
  0x3bdc8c083c47cff0U, 0x3c3028c93bf4879eU, 0x3bacfe5c3c5196e6U, 0x3bc5e6e03c053e6dU,
  0x3bbc48a03c043f34U, 0x3bd0240a3bcb5328U, 0x3c5a846a3c0559e5U, 0x3c54e02e3c7c3ba1U,
  0x3c4739973c618992U, 0x3c469a233c4a5728U, 0xbbbac6d03c74503cU, 0xbbc2ba55bbc5d035U,
  0xbbadb6f3bb126a52U, 0xbb678db7bba8c33dU, 0x3bd1e05bbb397450U, 0x3c1c44123c2cd4feU,
  0x3be63e513c4554c4U, 0x3c2eaaa53bf1600eU, 0x3bb069eb3c5196e6U, 0x3bcb0d643c07c4d9U,
  0x3bbdfd513c080c26U, 0x3bd430b53bcca286U, 0x3b8ad8383c0559e5U, 0x3bf56bf23c13efedU,
  0x3bcedf253c2af4e8U, 0x3c10b7813be090baU, 0xbb24bfc53c35e4a6U, 0x39c4cf7e3b0698a5U,
  0xba87eb4a3b849458U, 0x3b255200ba5a6bd1U, 0x3bfbe66c3b84a775U, 0x3bc55c1e3c00327bU,
  0x3b9dffe03bd9f3adU, 0x3ba933163b9c859dU, 0xbb5b4d6e3be7cb15U, 0xbb74a347bb39520bU,
  0xbb68de01ba8818f5U, 0xbb21856dbb49991eU, 0xbbb8bba9bacfbd6aU, 0xbb6e4c91bb95502bU,
  0xbb8216b4bb05e6bcU, 0xbb606b14bb9b4d94U, 0x3c097a4dbb33895eU, 0x3bbdc6213bd72beaU,
  0x3b92da1f3bcbee8fU, 0x3bb5ac953b9b7a6aU, 0x3c5d57193bd85529U, 0x3c5452d63c7c64e9U,
  0x3c46d6cc3c64de49U, 0x3c4a2a1c3c4b01beU, 0x3bd900983c76b87cU, 0x3c1a59f23c1ae716U,
  0x3c0675a33c2a68b2U, 0x3c219fa53c14381dU, 0x3c0848c23c262993U, 0x3bc331243bde65ddU,
  0x3b9c7cc43bd15246U, 0x3bb200eb3ba0f579U, 0xbb29e69d3bd85529U, 0x3a24a3243aff8f71U,
  0xba8f5b383b827164U, 0x3b1ec6b4ba2f40fbU, 0x3b646c513b84a775U, 0x3c2737b13c30545aU,
  0x3be3f6103c3c3f02U, 0x3c17f4b03bb3c4f0U, 0x3c450d2b3c3e931bU, 0x3c4642e83c60e391U,
  0x3c3893f13c61428aU, 0x3c4b1a353c478ae6U, 0x3c4fe8ba3c6a4cfcU, 0x3c4c99643c6b01a1U,
  0x3c35b0fd3c5a9b41U, 0x3c3e8c843c3df5c0U, 0x3c834fd93c67808fU, 0x3c9ab6223ca17f22U,
  0x3c7a962c3c8e6390U, 0x3c8468013c60810fU, 0x3a95f2383c949f15U, 0x3be405923bde1568U,
  0x3bb0291c3c029e7eU, 0x3bcfc5d13b64a619U, 0x3a95f2383c0492d6U, 0x3bde96de3bdaa085U,
  0x3bb08a0c3c02590fU, 0x3bcb5b683b59bb1eU, 0xbbb5ec2f3c036855U, 0xbbb661f0bbb7e43bU,
  0xbbaf8d44bb07fcd5U, 0xbb63fc7abba5b76fU, 0x3bae926fbb292cb4U, 0x3c2384ea3c360ebaU,
  0x3beece473c4742c2U, 0x3c1e16cc3bba4ec9U, 0x3c4d5c4a3c5065e7U, 0x3c47ea013c6a862fU,
  0x3c351d3e3c5ae22cU, 0x3c3e2cb43c41f368U, 0xbb2543aa3c69e69bU, 0x39452d203b006654U,
  0xba9789323b8382d9U, 0x3b0a6e0fba88f248U, 0x3bad850b3b8878a5U, 0x3bcc68753c06d268U,
  0x3bc43f103c0484abU, 0x3bd54b813bcefe47U, 0x3aa05a763c06e823U, 0x3bdf21e93bdd240cU,
  0x3bb87e6e3c029e7eU, 0x3bd1fb333b65b05bU, 0x3b64f25b3c036855U, 0x3c1de84c3c31715cU,
  0x3bda44443c38ac30U, 0x3c152b9e3bb8bcfaU, 0x3a92d30e3c3b0544U, 0x3be334ed3bdb4163U,
  0x3bb0291c3c03f9bdU, 0x3bd315f03b66ba9fU, 0x3c91c3503c04f65cU, 0x3c98542b3ca38a0bU,
  0x3c87ec1f3c8e3f8aU, 0x3c71b3ef3c72528cU, 0x3c4aadce3c936695U, 0x3c49fb083c65b455U,
  0x3c413efe3c5fdf77U, 0x3c4f9b493c44befbU, 0x3bd619423c6de6eeU, 0x3c1b95023c2a72d9U,
  0x3be11be93c48168aU, 0x3c2824173bf37a67U, 0x3b603c1e3c4d9ea4U, 0x3c24c0713c2e949aU,
  0x3bdd4ea63c3a0bf3U, 0x3c1648cd3bb5dc78U, 0x3c832d323c3ef841U, 0x3c95f2ae3ca2f797U,
  0x3c7d1e303c8cfb76U, 0x3c83a5a13c5f4ce3U, 0x3c5140393c946afcU, 0x3c4cdff83c6d6b05U,
  0x3c387b4e3c5dee8fU, 0x3c406bad3c42599cU, 0x3c4e4ca13c6b19c8U, 0x3c4d6d243c6322b9U,
  0x3c3c0b2a3c62ecc9U, 0x3c4f0b183c45ad95U, 0x3a95f2383c6cb383U, 0x3bd858503be22b8aU,
  0x3bab6dad3c007323U, 0x3bca9f0e3b5488a1U, 0x3bd483e03c04f65cU, 0x3c1a13f13c30ce7eU,
  0x3bdd4ea63c4742c2U, 0x3c2f0a2b3bef8914U, 0x3b8ad8383c4f9aa1U, 0x3bf7992f3c1533f8U,
  0x3bd0f5bc3c2bc742U, 0x3c0f3bb03bd7a517U, 0x3babf1013c345124U, 0x3c20a4ec3c391543U,
  0x3bebf3723c4b6614U, 0x3c1ea5a03bc26ba6U, 0x3c0848c23c532db8U, 0x3bbc26253bd72beaU,
  0x3b9a38323bcd026eU, 0x3baeb3823ba2c94eU, 0x3c4e2a4a3bd85529U, 0x3c4bc5ab3c6b2ac8U,
  0x3c398a573c5ec37eU, 0x3c406bad3c456968U, 0x3b5003133c6a4cfcU, 0x3c04ebf63c0a9c6dU,
  0x3bda74e93c16bd41U, 0x3bf5c0683b9fea2cU, 0x3bdad9b83c1accf9U, 0x3c1735133c19f3cbU,
  0x3c0921c03c27abe9U, 0x3c22ed2a3c12c456U, 0x3bdd7dbc3c25c51fU, 0x3c16ef1b3c1a44e3U,
  0x3c0720a23c2765dbU, 0x3c20e1193c112eddU, 0x3c32ff853c26f282U, 0x3bf8afd73c1d1eeeU,
  0x3bc92da63be4364dU, 0x3bb434ad3bbb17b5U, 0xbb35bee93be326cfU, 0x3a08db6e3af82059U,
  0xba9789323b840b97U, 0x3b1f80d2ba1cbf5aU, 0x3b6254323b893c25U, 0x3c26422d3c2fda39U,
  0x3be4576e3c3a98b0U, 0x3c15ba333bb1f06eU, 0x3c4e6ef73c3ef841U, 0x3c4ef16d3c634bd1U,
  0x3c3c6dc73c61d09aU, 0x3c511bde3c478ae6U, 0xbb01b03b3c6de6eeU, 0xbb1124d2babb0804U,
  0xbb165fafb8813decU, 0xbaed0db6bb0d4605U, 0xbb55a59cba72a8beU, 0xbb64c9b8bb3c5fc0U,
  0xbb6a5820ba7f6f7aU, 0xbb2b8a55bb4067f5U, 0x3c5d5719bacfbd6aU, 0x3c5499813c7b9685U,
  0x3c4720e43c64501fU, 0x3c484a0c3c4d8a27U, 0x3aa9b8c43c76b87cU, 0x3be07d8b3bdbe244U,
  0x3bad82a63c01ce34U, 0x3bc7adc53b684a0cU, 0x3b8c6b2b3c0620feU, 0x3bf824823c1533f8U,
  0x3bc6b64a3c2d25f0U, 0x3c1145f73bdeba6dU, 0x3c086ab43c357fc1U, 0x3bbe50cd3bddc4f3U,
  0x3b9c4c613bcd026eU, 0x3bad3bdb3b9fa75aU, 0xbaea9aa43bd78f7dU, 0xbb09b7f8bab4e5d0U,
  0xbb0dd94eb93658baU, 0xbad78743bb180547U, 0x3c32bb27ba66b8a3U, 0x3bfa0c323c1fd0c4U,
  0x3bcdbb963be54af9U, 0x3bbbeac73bc15f96U, 0x3b5432913be00f0dU, 0x3c08bcf53c051609U,
  0x3bd1878d3c148f38U, 0x3bf972413b9c0003U, 0xbbaf46f23c193c82U, 0xbb6f5b0cbb932fb5U,
  0xbb791c0bbaf0aaf3U, 0xbb50b642bb94b1cfU, 0xbbb4e684bb320e88U, 0xbb5c54a0bb8eee78U,
  0xbb7de800bb05e6bcU, 0xbb53918bbb97bebfU, 0x3c05800ebb320e88U, 0x3bbcb0cc3bd63ab4U,
  0x3b939b823bca50d1U, 0x3bad99c33b996417U, 0x3bb4e33f3bd53e9aU, 0x3c24c0713c393e0aU,
  0x3bef91333c4bf367U, 0x3c21cf493bc377bdU, 0x3c35cd8c3c53f932U, 0x3bf8afd73c1dc137U,
  0x3bcf40563be3abfaU, 0x3bb958953bba0bd0U, 0xbaf4ed753be19ae3U, 0xbb09302cbac4d7e2U,
  0xbb066ef1b914b74aU, 0xbae1932abb198e35U, 0xbb0654e9ba60c058U, 0xbb13cb8ebad38ea0U,
  0xbb14e432b947290bU, 0xbaf5a916bb1f2ebfU, 0x3c5d9bf2ba854385U, 0x3c5338313c7d0a0bU,
  0x3c41ba5e3c60b47fU, 0x3c466a283c4b23ddU, 0xbb34b74a3c75844fU, 0x3a37dfce3af5a60eU,
  0xba87eb4a3b85a5dfU, 0x3b2497d5ba49fa93U, 0x3c4a692c3b862e45U, 0x3c4c2f863c65dd72U,
  0x3c3ffe423c5f9877U, 0x3c4f3b283c478ae6U, 0x3bd2aaff3c6d19f9U, 0x3c16632d3c18af79U,
  0x3c0af2263c264db1U, 0x3c1db7963c11b602U, 0x3c378a343c22a1eaU, 0x3bfd50673c1bda6cU,
  0x3bc685ba3be321a9U, 0x3bbad0ad3bb407e0U, 0x3c59facc3be260d6U, 0x3c51265f3c790246U,
  0x3c43a7fb3c618992U, 0x3c463a2d3c4a9b63U, 0x3baf5c7d3c74503cU, 0x3bc9b25c3c051609U,
  0x3bbf207b3c059a95U, 0x3bd722e73bd2237aU, 0x3bafe3333c074bb9U, 0x3c249d613c3a5b83U,
  0x3bf66c0b3c4b1f6dU, 0x3c2170013bc7a854U, 0xbb3f02fc3c532db8U, 0x39918ed63ad1bcd7U,
  0xba9a828d3b7b4682U, 0x3b1553c4ba1ecdcdU, 0xbb520c193b862e45U, 0xbb7d9d68bb38b5b0U,
  0xbb80fb6cba83e86aU, 0xbb21856dbb4688d6U, 0xbbbedcdbbade9ca6U, 0xbbc16a45bbbc2166U,
  0xbbb6e5cbbb1ac0b7U, 0xbb7c3b66bba67a67U, 0x3c821804bb2f18bfU, 0x3c98423d3ca16a3aU,
  0x3c78bcce3c8df781U, 0x3c8406cf3c5e18c7U, 0xbbb2db1d3c939aa6U, 0xbb6b210ebb8eee78U,
  0xbb7b52d3bb02c576U, 0xbb606b14bb96384dU, 0x3c5c2156bb33895eU, 0x3c50dfbe3c79f9d4U,
  0x3c47524b3c618992U, 0x3c481a0d3c4c34d9U, 0x3bd76b1d3c7651bfU, 0x3c18b5f63c19cb40U,
  0x3c0675a33c290a3fU, 0x3c246a6f3c1085f3U, 0x3ab317873c24fc41U, 0x3be677973bdeb653U,
  0x3bb484113c059a95U, 0x3bccd4283b607d31U, 0xbb0c85763c0620feU, 0xbb09302cbac4d7e2U,
  0xbb229986b98d9b47U, 0xbaf88772bb1e28dbU, 0x3bfe8c45ba7e9836U, 0x3bc21bb03c00ab8cU,
  0x3b9915f43bd8df60U, 0x3ba5888e3b9fa75aU, 0x3c4c8e503be260d6U, 0x3c4c99643c67789fU,
  0x3c36f1283c586418U, 0x3c3c7da33c469c38U, 0x3c4cb0a33c6c4d10U, 0x3c4b15413c62a775U,
  0x3c4092483c61428aU, 0x3c4f0b183c47cf19U, 0xbbb299ae3c6d19f9U, 0xbbb98926bbbd09e1U,
  0xbbad87eabb10548eU, 0xbb6b1eccbb9f5e32U, 0x3c49dfebbb2d9dcbU, 0x3c4a41953c625549U,
  0x3c3c6dc73c5f9877U, 0x3c4e1ad13c436a30U, 0x3b48b0693c6be6a0U, 0x3c06030a3c07ed42U,
  0x3bd2ab333c185ff8U, 0x3bf503473ba1384dU, 0x3b86e9153c19a09cU, 0x3bf6c8353c1491f0U,
  0x3bc9bf5e3c2c5384U, 0x3c0c73d23bd4c2a3U, 0x3c0099213c345124U, 0x3bc5e6e03bfd3dfbU,
  0x3b96d18d3bda7dd6U, 0x3ba4113d3ba0f579U, 0x3c824bfb3be3eccdU, 0x3c978eee3ca006e1U,
  0x3c7d1e303c8e8796U, 0x3c82519c3c60e7ccU, 0x3bf875723c92ca69U, 0x3bc89cc33bfe80beU,
  0x3b948d433bdecf77U, 0x3ba8d5383ba522e8U, 0x3b8c28013be4b2d0U, 0x3bf40fb93c16270dU,
  0x3bcfa1873c2d25f0U, 0x3c0edcc03bddadb6U, 0x3bac34573c351adfU, 0x3c21e04e3c384965U,
  0x3beeff023c48168aU, 0x3c1f93b53bc1a29aU, 0x3bcc99c13c5196e6U, 0x3c16cc1f3c2a2183U,
  0x3bde72983c424cf3U, 0x3c28837f3bec1e9aU, 0xbbb111103c51fc96U, 0xbbbe4394bbc5d035U,
  0xbbb50fc6bb18ab37U, 0xbb63fc7abba77e58U, 0x3c372394bb320e88U, 0x3bf9c6853c1ca53bU,
  0x3bc685ba3be182c5U, 0x3bb54e9a3bb87a04U, 0x3c952a463be326cfU, 0x3c98661a3ca38a0bU,
  0x3c8b25e13c8eab9cU, 0x3c7760413c70fb18U, 0x3b6816a43c94d330U, 0x3c23cb063c307d11U,
  0x3be0eb3d3c3c3f02U, 0x3c17f4b03bb4d0b1U, 0x3b603c1e3c3e931bU, 0x3c256fc33c31c2cdU,
  0x3be394b33c3adf10U, 0x3c152b9e3bb59986U, 0xbb1759773c3ef841U, 0xbb12bc12bae4b790U,
  0xbb1d0b13b9c00554U, 0xbb0a9a1bbb244c06U, 0x3c945927ba854385U, 0x3c9ac8143ca3c8d1U,
  0x3c8956d73c8f5fc7U, 0x3c77c1223c73655dU, 0x3c32ff853c94d330U, 0x3bf4e0a73c204a8aU,
  0x3bc105d03bdca694U, 0x3baeb3823bb7f418U, 0x3b4cdf943be19ae3U, 0x3c011b913c0630cdU,
  0x3bcc980f3c126179U, 0x3bfaecb03ba243a1U, 0x3c930e2a3c1a04b8U, 0x3c98423d3ca4edd8U,
  0x3c8956d73c90380eU, 0x3c769e853c6fa3b9U, 0x3b564a613c956f89U, 0x3c05777e3c09816fU,
  0x3bd460bb3c16777bU, 0x3bf972413b9c0003U, 0x3c51a7493c1a68d7U, 0x3c4aab6a3c6e620dU,
  0x3c38dddb3c5e7c82U, 0x3c3e2cb43c4613daU, 0x3bd7aeb13c6be6a0U, 0x3c154b5b3c1b60bfU,
  0x3c068e103c2a68b2U, 0x3c20e1193c1307edU, 0x3b4cdf943c262993U, 0x3c0782db3c0c30cdU,
  0x3bd36da63c151ab3U, 0x3bf389103ba243a1U, 0x3bb5ad683c19a09cU, 0x3bc787303c088eeaU,
  0x3bbe5e5e3c07811aU, 0x3bd315f03bcf8477U, 0x3ba450e33c0620feU, 0x3c231bc03c35bd38U,
  0x3bf1da083c4a4b7eU, 0x3c234c793bc6591aU, 0x3c31878a3c52c7ffU, 0x3bfeace33c18af79U,
  0x3bc6b64a3bda7dd6U, 0x3bb02b363bb9c8d8U, 0x3c82f9373be326cfU, 0x3c99a8f93ca3751eU,
  0x3c7cd3673c8e3f8aU, 0x3c84989b3c60e7ccU, 0x3b6b3b093c9436e4U, 0x3c2457423c323cf9U,
  0x3bd7cbfb3c37d92fU, 0x3c14cc923bb0e4beU, 0xbb69b1473c3a3b34U, 0xbb802095bb4f4be5U,
  0xbb65e9afba98d9c8U, 0xbb25199bbb608ffdU, 0x3c94020abad2b705U, 0x3c99ccdb3ca45b51U,
  0x3c8b3eea3c8f83d1U, 0x3c769e853c72973fU, 0xbbb527ef3c94d330U, 0xbb6e4c91bb929421U,
  0xbb800f55bb01ba57U, 0xbb59fe91bb9533fbU, 0xbbafc9d7bb2aa7c6U, 0xbbb4ce41bbb7e43bU,
  0xbbb3c6b7bb1695a7U, 0xbb5fb462bba2ab6eU, 0x3c92fcbfbb320e88U, 0x3c9985183ca45b51U,
  0x3c89c7723c8ecfa4U, 0x3c75dcd03c711d70U, 0xbb70e2633c953b6aU, 0xbb698b43bb381954U,
  0xbb699b11ba6a7aecU, 0xbb3e226fbb5d8079U, 0x3b47a4a6bad2b705U, 0x3c03d4ee3c09816fU,
  0x3bd79b593c16bd41U, 0x3bf8b50f3ba3d4abU, 0x3bd835d93c1c5d9cU, 0x3c15914e3c197a2aU,
  0x3c0644c83c27abe9U, 0x3c20e1193c0f9981U, 0x3b8cae543c2497d6U, 0x3bf8f5823c0f825eU,
  0x3bca20843c2a2299U, 0x3c0cd2b63bdca107U, 0x3c8010933c32bdd1U, 0x3c9693f83ca12b81U,
  0x3c7b2bb13c8ef3abU, 0x3c85735d3c603c92U, 0x3c05800e3c939aa6U, 0x3bbe50cd3bda5017U,
  0x3b948d433bcfb444U, 0x3bb089263b996417U, 0x3c59facc3bdb6c0fU, 0x3c540c2c3c7d5c9eU,
  0x3c46a5673c64de49U, 0x3c478a123c4b8a3aU, 0x3b82b7283c7651bfU, 0x3bef2a6f3c13c76dU,
  0x3bcd8aff3c299669U, 0x3c0f6b283be19d81U, 0x3bd3fcc23c30c5e8U, 0x3c19aaf13c2f88d0U,
  0x3bdf353d3c46fc2cU, 0x3c2fc93d3bf4caecU, 0x3bffdf3f3c50cb8fU, 0x3bc3bbe03c00ab8cU,
  0x3b9a68923bd96985U, 0x3ba5e6653ba28677U, 0xbbb08e2d3be260d6U, 0xbbbad96dbbb577f1U,
  0xbbad29d7bb148005U, 0xbb606b14bba22969U, 0xbb4deec6bb2aa7c6U, 0xbb698b43bb47f93dU,
  0xbb693c89ba83e86aU, 0xbb32b1a6bb59ee3dU, 0x3bda9620bacfbd6aU, 0x3c1a59f23c2cac4fU,
  0x3be5ac3e3c450e36U, 0x3c2f69b33bf3371bU, 0xbbb7333d3c500043U, 0xbb5d634dbb91aabeU,
  0xbb82d38cbaf904f1U, 0xbb566cbbbb9a0850U, 0x3bae926fbb2f18bfU, 0x3c2688523c3c4508U,
  0x3bf5a9023c497799U, 0x3c21cf493bc8b489U, 0xbb5ee6983c5196e6U, 0xbb77ce7abb41de8cU,
  0xbb77a228ba8600b4U, 0xbb2c417ebb503c0dU, 0x3c500b12bade9ca6U, 0x3c4a41953c6b7d16U,
  0x3c387b4e3c59c689U, 0x3c3e2cb43c44befbU, 0xbb3642b73c68b388U, 0x3a08db6e3b0874a0U,
  0xba9e3a2d3b804e93U, 0x3b232382ba41c1adU, 0x3c8487ce3b856adbU, 0x3c9878093ca1a8f4U,
  0x3c7a19973c8f83d1U, 0x3c8468013c5f086aU, 0x3d863bbc3c95074cU, 0x3d6b83373d8318f6U,
  0x3d5396433d52362fU, 0x3d618c703d5abfe4U, 0x3d8554fb3d5b116cU, 0x3d6c28113d8318f6U,
  0x3d51cfa63d513245U, 0x3d60a9763d59f49eU, 0x3c3a61bc3d5972eeU, 0x3bd32ee23c0d3041U,
  0x3bc61df53b88ab15U, 0x3b5cc29f3bebf7d9U, 0x3bc613ca3b95ade0U, 0x3b9d49713b9e3b36U,
  0x3b94d1af3b74afecU, 0x3b5e3fc13b375a47U, 0x3d609af03b5117c7U, 0x3d4fe1f43d660e8aU,
  0x3d32db793d33128eU, 0x3d3034623d302969U, 0x3caaa80e3d3c7d60U, 0x3c9f1f923caa84d4U,
  0x3c8564d93c8313fdU, 0x3c7ae6d13c8319b2U, 0x3cfc6fa03c83b422U, 0x3cdbd72f3ce63db9U,
  0x3ccae6ef3cc035e4U, 0x3ccffd453cd5b0dfU, 0x3b24c4ef3cbab6f0U, 0x3af5693e3b410cb1U,
  0x3ae2d3a03b3dbad1U, 0x3b0813533aa411dfU, 0x3c7d832f3b2b4186U, 0x3c924fd03c9cfff6U,
  0x3c885a923c873246U, 0x3c7cf16b3c82b4b8U, 0x3cb8668e3c83e68bU, 0x3cbc17e23ccc733aU,
  0x3ca721d73cac122fU, 0x3cac11da3caaf2f6U, 0x3c37745f3cb16009U, 0x3bd8b22e3be62f81U,
  0x3b7dd3023b6cfb77U, 0x3b4435e53b470f3aU, 0x3ce607813b54401fU, 0x3ce3d98d3cfaaf4bU,
  0x3cc430c13cc4683aU, 0x3cba2ede3cbb8623U, 0x3aa8a64e3cc8f66aU, 0xbaff2c83bb7316bcU,
  0xbb456708bb8f2227U, 0xbb934871bb988a23U, 0x3d5e144bbbb1e7e8U, 0x3d51ef893d64c5bcU,
  0x3d355bd03d33128eU, 0x3d31d38a3d2f73f4U, 0x3d5d87dd3d3bece2U, 0x3d4f9f1c3d62a62fU,
  0x3d3495a73d329d2dU, 0x3d31fa7c3d2fe9e4U, 0x3d2656e73d3cd41eU, 0x3d1a5bc93d2db7d7U,
  0x3d0e18293d07a785U, 0x3d06a43c3d123240U, 0x3ccfb48e3d0d1930U, 0x3cadd2ec3cb7e5d1U,
  0x3ca0c1b33c98a73fU, 0x3ca2fc993cae8ce2U, 0x3a6383b03c94e547U, 0xbb104a7cbb79e499U,
  0xbb498246bb92551eU, 0xbb9d7149bb990d5cU, 0x3b9dbc1ebbb8bb4aU, 0x39b5bdcd3a1961a4U,
  0x3937b5f2babc81edU, 0xbaa5de72baa52b24U, 0x3d868d86bad7aaedU, 0x3d6c0af83d835e3eU,
  0x3d53c5173d516e3aU, 0x3d61219b3d5ae4ddU, 0x3cb7b5283d5a7d4dU, 0x3c9b2b893ca35913U,
  0x3c9314813c948857U, 0x3c91093c3c9ad048U, 0x3d2cd7b13c8dd1b1U, 0x3d2194ef3d2e70f3U,
  0x3d090da33d064319U, 0x3d072e5d3d02e3dfU, 0x3cef2ec13d0f3e2dU, 0x3d01056e3d0a203eU,
  0x3cd83f8f3ce2556dU, 0x3ce0f06c3cd0a531U, 0x3ce836723cefa771U, 0x3ce7ec903cfb817aU,
  0x3cc305453cc2918bU, 0x3cc02c7a3cc0d2d9U, 0x3c6e1ab73ccc3d93U, 0x3c23bca33c2b7125U,
  0x3c2123f63bf95cceU, 0x3bebd22c3c1465caU, 0x3b7e58f93beb2da8U, 0xba8986f3ba2be0bcU,
  0xbab1c30bbb10e263U, 0xbb2b7fe1bb174f1bU, 0x3d24aecabb1b9eb3U, 0x3d1857923d2a3c57U,
  0x3d081a293d061d9cU, 0x3d03047a3d079276U, 0x3bcc1d2a3d0d86e2U, 0x3ad5d6e03b461958U,
  0x3b7ac7863b22518eU, 0x3b472f483b95eaa3U, 0x3b8b2e1d3b364809U, 0xb9fba228b6f24cbbU,
  0xba54e20fbaebf1caU, 0xbadaa5efbb07d324U, 0x3b4abf76baf68843U, 0x3b32dab53b590b76U,
  0x3b125a5d3b506521U, 0x3b1c19df3af67b0fU, 0x3d25c6793b3e2973U, 0x3d1a93223d2c45ebU,
  0x3d0d108e3d083dbcU, 0x3d06c9e63d101444U, 0x3bc850f73d0e7de1U, 0x3bc2a1793bb233d7U,
  0x3ba559df3bcf7500U, 0x3bb2bde73bc8e062U, 0x3bd0c78c3b9e8e99U, 0x3bc47afb3bb8dd6fU,
  0x3ba3b35b3bcf7500U, 0x3bb486693bcd6eceU, 0x3b81c8693ba3bf43U, 0x3ac46dda3b4d0b3cU,
  0x3b347a3c3b248283U, 0x3b0f7d773aec0a7aU, 0x3ba1229f3ae882eeU, 0xba3c9136baf0806cU,
  0xbb0ff405baab3db4U, 0xbaa2ef4dba9dec55U, 0x3cfe6c2fbb04847dU, 0x3cdc1eaf3ce4b3d7U,
  0x3ccb883a3cc1310bU, 0x3ccfe4f53cd505a2U, 0x3d5deed73cba1c78U, 0x3d51f9193d645fc1U,
  0x3d37dd413d348697U, 0x3d3373373d307b19U, 0x3b9c08ba3d3bece2U, 0x3b7fa6d93ba8c918U,
  0x3b573ce63b830e32U, 0x3b52101f3b9a7e36U, 0x3cd88f013b5760ceU, 0x3cb51fc33cc93c17U,
  0x3cc0be3b3ca5574fU, 0x3cb0ee493cc87993U, 0x3c7e914c3c9d2fe3U, 0x3c915ad13c9e0804U,
  0x3c8503223c8522dfU, 0x3c8277243c803580U, 0x3c6653213c854797U, 0x3c173b203c24d471U,
  0x3c1bd2213be89cc0U, 0x3be2682f3c13dd72U, 0x3c4a45f13be72905U, 0x3c5015b33c6790f4U,
  0x3c2242933c4072e8U, 0x3c47aa2f3c332a94U, 0x3c00e4ba3c2c6284U, 0x3bad36163bae6d6fU,
  0x3ba1cac93b8180bdU, 0x3b59c8703b8e4acaU, 0x3c18025d3b8043daU, 0x3b8b30e43bce4123U,
  0x3b9baf743b5a48fcU, 0x3b2a346c3bae6695U, 0x3d24f6f23b60e349U, 0x3d1730e53d292cfeU,
  0x3d07e0843d051753U, 0x3d03368f3d0bc014U, 0x3d24d2de3d0bd06dU, 0x3d1715483d2d1498U,
  0x3d0706d63d07ba4aU, 0x3d0381b23d0a6fd6U, 0x3d2b91363d0e626cU, 0x3d157d0c3d23f9e9U,
  0x3d0b0d693d0782d8U, 0x3d0e03fd3d103647U, 0x3d9a604d3d0886b9U, 0x3d8b5bca3d9af5adU,
  0x3d797eaf3d803080U, 0x3d8733c53d820fdaU, 0x3ca862063d853e92U, 0x3c9c09143cacd4ecU,
  0x3c8912013c7fda39U, 0x3c7026b53c85998cU, 0x3c155cee3c825365U, 0x3bbece903bd918c3U,
  0x3bc5bbeb3b92998bU, 0x3b8995e53bb86b73U, 0x3b6b924a3b8504aaU, 0x3a88a0cf3b38d8c3U,
  0x3b347a3c3b187627U, 0x3aec951e3ad409cdU, 0x3c1d91ee3ae23d0bU, 0x3ba9ea363be8bdc6U,
  0x3ba99f003b727c45U, 0x3b3e43723bc40809U, 0x3bb8f6ea3b7bc780U, 0x3a7b86ad3b31e883U,
  0x3b2b5f6b39cf754dU, 0x390f56ea3b585963U, 0x3d40f30439e58a41U, 0x3d1e49f13d32479bU,
  0x3d126e343d0a9232U, 0x3d11e2873d131010U, 0x3bcdf52f3d0e902cU, 0x3bcad2fa3bb9c619U,
  0x3baa1ed03bd3a69eU, 0x3bb705a83bd1fdaeU, 0x3b9978ad3b9e8e99U, 0x3b8c37c53bb62e82U,
  0x3b58578f3b807061U, 0x3b6a5c5a3baa0c18U, 0x3ba68bf93b5a5994U, 0x3b89d80d3bb40ca3U,
  0x3b6cf6553b8e93deU, 0x3b4dc7323b97f1f3U, 0xbb80a9943b6c318cU, 0xbbffcd10bbff481fU,
  0xbbdb0aafbbe59c2eU, 0xbbee0063bbe83bd4U, 0x3b7cc846bc09efbfU, 0x3b62ed6f3b909823U,
  0x3b663ca73b8327e8U, 0x3b47eda53b3e285cU, 0x3d2551293b6bf465U, 0x3d19e3e43d2b775eU,
  0x3d06d3a23d07cd10U, 0x3d035c203d0bc014U, 0x3b9e42073d0da250U, 0x39ff82823a39f951U,
  0x3a08612dbab3e01aU, 0xba973231ba830087U, 0x3beb6500bad17da3U, 0x3af9c4753b9eddb1U,
  0x3b9f4f953b53b0eaU, 0x3b98e5903bbca40cU, 0x3bca46c13b6d894eU, 0x3ac7b16d3b65af34U,
  0x3b5d7e2c3a88bb30U, 0xb86404b93b73183dU, 0x3d99b3863a5060beU, 0x3d8acb453d9b198bU,
  0x3d7819d73d7f12b6U, 0x3d86d3013d81bf0fU, 0x3d41733a3d855dd2U, 0x3d1e49f13d31f0c1U,
  0x3d11b4bb3d0a6cd7U, 0x3d11b04e3d14443aU, 0x3c4595243d0e59c5U, 0x3c2ace7d3c3239bdU,
  0x3c1881f33c1e97bdU, 0x3c1fed003c211c5dU, 0x3c91ac6d3c0bd2aaU, 0x3ca373963cb680cdU,
  0x3c956c2b3c954271U, 0x3c8c6e393c8da37fU, 0x3d2c97263c98b309U, 0x3d166b853d24c621U,
  0x3d0bb2ef3d07dffbU, 0x3d0f24123d10a87dU, 0x3da28a9d3d086bb3U, 0x3d8f34523d9f751dU,
  0x3d82218d3d8101b9U, 0x3d8b59073d885d6cU, 0x3ca7ea403d87339aU, 0x3ca4d3aa3cad8cc7U,
  0x3c8671a13c809c6aU, 0x3c77ef0b3c83e3b2U, 0x3c0033493c8285c5U, 0x3be9285a3c120caeU,
  0x3bad21163bf2c0d2U, 0x3bc8d2953bce976dU, 0x3da29e953be44d18U, 0x3d8f073c3d9ed8bfU,
  0x3d82d5783d813614U, 0x3d8b4b1d3d881584U, 0x3b58cf4a3d86d57eU, 0x3b38dbbd3b63c9b9U,
  0x3b1f3d143b61fb3dU, 0x3b1cd7d63b00fbcbU, 0x3cd7f3163b4933b2U, 0x3cb66f363cc7f3e2U,
  0x3cbf265f3ca59e24U, 0x3cb11e553cca23ebU, 0x3d2bbe5c3c9e929dU, 0x3d15988e3d24e663U,
  0x3d0c25933d08053fU, 0x3d0e298d3d1024b6U, 0x3d9adbce3d0928e9U, 0x3d8bbf843d9b9723U,
  0x3d788e763d803080U, 0x3d87642d3d816e4eU, 0x3ceba0993d856d73U, 0x3cfc4e423d0b53f6U,
  0x3cdbfb453ce2c3acU, 0x3cdff9a53ccfa201U, 0x3b72df1e3cefdcfdU, 0x3b4ae1133b794a4dU,
  0x3b43a8f33b7fb34dU, 0x3b2bb09f3b13ca14U, 0x3ca7ea403b5dba3aU, 0x3c9eead83caf1113U,
  0x3c89e1f43c7e7bbaU, 0x3c7e6d9e3c81101eU, 0x3da1d6fe3c80c099U, 0x3d8f6b703d9f5105U,
  0x3d8240ae3d80d7daU, 0x3d8ab90f3d883246U, 0x3cd0a6753d86f4dbU, 0x3cacee073cb6b40fU,
  0x3ca34a0f3c98ca72U, 0x3ca689283cabb696U, 0x3d5fd6053c957c91U, 0x3d5156913d652bbfU,
  0x3d34b6ac3d33d64cU, 0x3d327c583d31a6c2U, 0x3c04fb973d3d0df6U, 0x3bf0de273c0de59bU,
  0x3bb80d773bf91edbU, 0x3bc36ade3bdcad68U, 0x3b9775ad3be81461U, 0xba65a874bb090ac7U,
  0xbb1b2d2fbab3e01aU, 0xbac4aa3fbacf9548U, 0x3bfd0ab3bb126229U, 0x3bf784b33c04383bU,
  0x3b9fff6b3be6900bU, 0x3bcd82633bc002e2U, 0x3cd838613bec9dcbU, 0x3cb3f3be3cc7cadeU,
  0x3cbf57cc3ca3ae88U, 0x3caf3e063cc7be0fU, 0x3ce0eb0a3c9d2fe3U, 0x3ce3fd7e3cf99e26U,
  0x3cc070573cc1dc9fU, 0x3cbdb3213cbbcac6U, 0x3d8602053ccba01eU, 0x3d6ade6f3d83300dU,
  0x3d53031f3d518237U, 0x3d612ef53d5af759U, 0x3bbdaef93d5a247aU, 0x3aa2b6d73b38d8c3U,
  0x3b409f673a178f1cU, 0xb8d040e83b65faf6U, 0xbb934c4e399abd47U, 0xbc0a3d93bc0daddbU,
  0xbbe9d018bbf8100cU, 0xbc097febbbf4b362U, 0x3c12d9a3bc1347b1U, 0x3bb4a1a13bcc579bU,
  0x3bad71273b8fd700U, 0x3b827f6d3bacd1ceU, 0x3b3888173b8504aaU, 0x3a3831543b14eaa9U,
  0x3b075e313aef4b0fU, 0x3aa119da3a365628U, 0x3ceb7d9d3ab65dadU, 0x3cfd94613d0a6a7fU,
  0x3cda42fd3ce356b3U, 0x3ce1fffc3cd2ce6cU, 0x3bc224593cef71e6U, 0x3b9138523b913a6bU,
  0x3b8c3ded3b677b1fU, 0x3b59c8703b332a7aU, 0x3c9b71493b4c5b98U, 0x3ca2a06b3cb657ceU,
  0x3c9795153c98b88aU, 0x3c93fffb3c92fcf7U, 0x3cb8defb3c98b309U, 0x3cbc5ed93ccbb948U,
  0x3ca709203cad0cddU, 0x3caaefba3caa6a7cU, 0x3ba9a0183cb4d002U, 0x3b913b1c3bab3850U,
  0x3b5274323b8f1a0bU, 0x3b4c599a3ba6fc5bU, 0x3d2c73023b5760ceU, 0x3d16347a3d24b0a1U,
  0x3d0b536e3d08053fU, 0x3d0ed8e53d11005dU, 0x3d86321d3d0886b9U, 0x3d6c3b773d835878U,
  0x3d51f7be3d519635U, 0x3d60b6cf3d5a7f34U, 0x3cfb7a3b3d59cbb0U, 0x3cd6f4f93cf1860aU,
  0x3cc56e623cc01206U, 0x3cd2450a3cceaccdU, 0x3cd1cc4c3cbc531cU, 0x3caf44d03cb97db3U,
  0x3ca3d0b23c9b67acU, 0x3ca5225e3cac8134U, 0x3cb5b3183c96465dU, 0x3c9806c73ca1b041U,
  0x3c9109583c946536U, 0x3c92cc363c99c3c4U, 0x3cfb229c3c8d9f79U, 0x3cd7dd013cf19addU,
  0x3cc602fd3cbeab77U, 0x3cd1cb613cd035dcU, 0x3c4b72493cbcba36U, 0x3c4f02443c6790f4U,
  0x3c22722b3c3fe9deU, 0x3c44eee33c32031eU, 0x3d245da13c2e497fU, 0x3d175eed3d2ad463U,
  0x3d06fa093d06305aU, 0x3d03e5e83d0a05b7U, 0x3c83a3c33d0ce25dU, 0x3c90f1d83ca18677U,
  0x3c86a2823c882892U, 0x3c85d05a3c82d660U, 0x3ce93c973c87a573U, 0x3ce588f93cfbab85U,
  0x3cc38e853cc5f6d1U, 0x3cc075983cc0c1a9U, 0x3cfaa7f53cca99cdU, 0x3cd61ed93cf217d0U,
  0x3cc5ddd63cbf5eb7U, 0x3cd2d7103cd08b55U, 0x3c46e79b3cbb84faU, 0x3bf945ad3c0f98a1U,
  0x3ba848b93b8790c6U, 0x3b7793373b930622U, 0x3cb64d473b87655fU, 0x3c9941963ca344d6U,
  0x3c92effe3c946536U, 0x3c9138b13c9aaeb6U, 0x3d2ba3453c8eff20U, 0x3d164fff3d240f67U,
  0x3d0c32503d0817e1U, 0x3d0e42983d11351aU, 0x3b8bf6ac3d08bcc5U, 0xba0f2195b963b262U,
  0xba8dbd6ebb0b8160U, 0xbb086964bb1099b5U, 0x3bd1e410bb0aae8cU, 0x3ad8041d3b7a8e45U,
  0x3b82569c3b2d4714U, 0x3b7a8e7f3b988bfbU, 0xbb59f31a3b4ac79fU, 0xbbf0aab0bbeb66cbU,
  0xbbc35e73bbe05497U, 0xbbe27ae1bbc58fd3U, 0x3be1a8f9bc02d1aeU, 0x3af33bac3b909823U,
  0x3b9903c13b4105a9U, 0x3b9469be3bafb7f0U, 0x3bcbe7f03b5a9158U, 0x3bc36c663bb7f4cbU,
  0x3ba5b7c63bd18dbeU, 0x3bb3747f3bcf755cU, 0x3d5ecf9e3ba00a1eU, 0x3d5347ef3d637d3dU,
  0x3d36aced3d3200c0U, 0x3d33253c3d2f61d0U, 0xbb6328ef3d3acc2cU, 0xbbf3dabebbec51e3U,
  0xbbce78b7bbe6aa66U, 0xbbe6cd55bbd00671U, 0x3da1e5f5bc05d14fU, 0x3d8edf2a3d9ee4c5U,
  0x3d8240ae3d80c2ebU, 0x3d8acdea3d87c8daU, 0x3c21f15c3d86c5d1U, 0x3bba216f3bf2a683U,
  0x3bb32cfc3b820dc9U, 0x3b44f43b3bc6ac08U, 0x3b73ea233b7ef242U, 0xbb3794e5bb3d330dU,
  0xbb438922bb0a6debU, 0xbb32cd50bb132e4eU, 0x3c5d59a7bb4b3f3dU, 0x3c0e36f33c1d428bU,
  0x3c17dbc13bde9408U, 0x3bd53de13c1310f4U, 0x3bb4c5793be2576aU, 0x3a3831543b23685bU,
  0x3b143f5b39b5618bU, 0xb9809d1c3b49278fU, 0x3b7cc8463938e2afU, 0xba20714fb9f8d4a2U,
  0xbaa5c1f7bb0c94d0U, 0xbb1c27ebbb101595U, 0x3c0d2abebb188ab0U, 0x3ba6e4db3bc0e037U,
  0x3bae03e83b8da1efU, 0x3b8101983b9fea27U, 0x3c45b4603b8439ceU, 0x3bf377eb3c0ac827U,
  0x3ba4a7e13b867680U, 0x3b5efe553b8668f9U, 0x3d2548233b7ef242U, 0x3d1a9c5c3d2cc86fU,
  0x3d0d371f3d087616U, 0x3d06d6753d11d075U, 0x3cb4a3d53d0fac22U, 0x3cb8b30c3ccc87e4U,
  0x3ca637173ca9d5a4U, 0x3ca9fe0e3ca837c6U, 0x3cd1a9b93cb1fb34U, 0x3cafd1c43cb9e3b5U,
  0x3ca3d0b23c9a7104U, 0x3ca6b9033cac5f6eU, 0x3da27ba43c9517b3U, 0x3d8f254a3d9ef6cfU,
  0x3d8293b63d80f741U, 0x3d8b5ffd3d87ef2eU, 0x3c5fc28e3d86c5d1U, 0x3c140a003c23b3a6U,
  0x3c1c1c613be3094eU, 0x3bdf65733c1310f4U, 0x3b994a233be2576aU, 0x3b3f68ed3b42f167U,
  0x3b47d63d3b259b05U, 0x3b00a9dd3b039836U, 0x3c44266a3b1b8520U, 0x3c26ee4a3c2cb07cU,
  0x3c1630213c1ae094U, 0x3c2275013c1c8280U, 0x3cd919a13c0d54b4U, 0x3cb64be43cc81ce6U,
  0x3cc1b5873ca533e6U, 0x3caf56073cca23ebU, 0x3cef97d73c9dc7e1U, 0x3cfe5bbe3d0a4010U,
  0x3cd6622a3ce611a1U, 0x3ce05c583cd2555eU, 0x3c42fa6e3cee9bcbU, 0x3c28ef6b3c2ed778U,
  0x3c1928433c1dcbd9U, 0x3c1fed003c2057fdU, 0x3cfa96703c0ab13eU, 0x3cd6780f3cf1091eU,
  0x3cc5493c3cbef328U, 0x3cd19ab93cceaccdU, 0x3c4cc67c3cbb84faU, 0x3c0179bf3c14bc77U,
  0x3c0e4d3e3bc96f47U, 0x3bbf763f3c073ae4U, 0x3cb4f6b03bd8b6b3U, 0x3c9964933ca3be42U,
  0x3c919b4e3c95a172U, 0x3c91ded13c991bfdU, 0x3b8638343c8eccdfU, 0xbac93e06bb2283efU,
  0xbb2fbd0fbacfebf4U, 0xbb040582baeb7e67U, 0x3c41efd3bb3438b0U, 0x3c2b799f3c2b75bcU,
  0x3c1bf13c3c213fa7U, 0x3c2077d53c21e0c3U, 0x3ce993fd3c0cf42dU, 0x3ce35bc33cfaaf4bU,
  0x3cc72a7b3cc1dc9fU, 0x3cbbfd033cbc878dU, 0x3cd93c4a3ccace41U, 0x3cb5acfc3cc98e2aU,
  0x3cc0b1de3ca59e24U, 0x3cafe6173cca23ebU, 0x3b86bddb3c9d628cU, 0x3b24ab363b30042eU,
  0x3b3b4ef13b12fce7U, 0x3ad9543a3acfdd7bU, 0x3b9495aa3b0ef198U, 0xb9a508d5394aad31U,
  0xba0cba9dbae7a284U, 0xbab8ef96baf7e4a6U, 0x3c0b102cbae71aa9U, 0x3bfe70523c0b48adU,
  0x3ba295fb3bf2390aU, 0x3bcb58903bcb853eU, 0x3d4205cf3bea58feU, 0x3d1e49f13d32682fU,
  0x3d1267cf3d09fccfU, 0x3d11b04e3d133345U, 0x3b63c0973d0ec696U, 0x3a6c51583b268f23U,
  0x3b32f5b43b080bc8U, 0x3abd34973aa51cb1U, 0x3d2c07353ae23d0bU, 0x3d22a1c73d2d816bU,
  0x3d08c0bb3d07f29dU, 0x3d0544e23d03824aU, 0x3c4cc0123d0f0738U, 0x3c4f24b13c6b73a8U,
  0x3c27482e3c3e4edeU, 0x3c45a9543c326599U, 0x3be59b043c2e497fU, 0x3b9369c13b98d680U,
  0x3b94a0df3b6314c7U, 0x3b3851703b6b39a6U, 0x3cfb7a3b3b5dba3aU, 0x3cd4849c3cf311c6U,
  0x3cc4d9ce3cbf3adcU, 0x3cd121173cce8aa2U, 0x3c47aab83cbcba36U, 0x3c28ef6b3c32125aU,
  0x3c1db4f63c1e0fceU, 0x3c2130f63c20ba2cU, 0x3cb45f1d3c0a50caU, 0x3cbcc9503cd02a5fU,
  0x3caaff133ca5ed29U, 0x3ca5bf9e3ca6f3fbU, 0x3b9ba48c3caff62fU, 0x3b4682623b5176e9U,
  0x3b4898ad3b2d4714U, 0x3b156c783b031286U, 0x3c9ae8fb3b1d17c4U, 0x3ca350633cb9de3fU,
  0x3c9b16e73c99b0e9U, 0x3c91915d3c9199adU, 0x3d414e973c964f62U, 0x3d1e250e3d32939fU,
  0x3d12a1633d0a9232U, 0x3d11ef163d133c12U, 0x3d869bf63d0e3e92U, 0x3d6c31c43d8386acU,
  0x3d541c133d51d230U, 0x3d61c1de3d5bde83U, 0x3d9a604d3d5ad629U, 0x3d8b65c23d9b01a1U,
  0x3d78a30c3d7f663fU, 0x3d87419a3d816e4eU, 0x3c3fdabf3d850fb6U, 0x3c27ddba3c326121U,
  0x3c1618613c213fa7U, 0x3c1c7e133c1f317aU, 0x3d8675773c09f059U, 0x3d69bbcf3d83af1cU,
  0x3d5219273d520e2eU, 0x3d61b4823d5a6cb8U, 0x3d2cb2423d59e948U, 0x3d16a2933d2506a5U,
  0x3d0a81683d077039U, 0x3d0eb3503d10c2d9U, 0x3bf7e04a3d08f2d6U, 0x3bdf0fda3c034c85U,
  0x3bb77f373be79f3cU, 0x3bb504803bd893f3U, 0x3c4b0e2a3befa47aU, 0x3c4f471f3c687f9eU,
  0x3c2289f73c3ed7d9U, 0x3c457ab73c2f938fU, 0x3c45d7d43c2c6284U, 0x3c2aac443c3174d0U,
  0x3c1ad4013c1e0fceU, 0x3c2246b53c2242f9U, 0x3cf98fad3c0cf42dU, 0x3cd6e3203cefd0e9U,
  0x3cc783073cc01206U, 0x3cd28e0c3ccee00fU, 0x3cfa84eb3cba4ff4U, 0x3cda18743ce51b79U,
  0x3ccab5503cc20869U, 0x3ccc62063cd3e29dU, 0x3d8610733cba1c78U, 0x3d6bbd643d837558U,
  0x3d538f923d518237U, 0x3d62477a3d5c4444U, 0x3c25c9c23d5a4215U, 0x3bba67d73c005d80U,
  0x3bbb66233b820dc9U, 0x3b47eda53bd3e24fU, 0x3ce982823b88fb4aU, 0x3ce6ccb23cf6bf4aU,
  0x3cbfdac63cc19446U, 0x3cbb6b093cbb63d2U, 0x3d2346343ccca694U, 0x3d1b67603d2af4faU,
  0x3d0b2ed63d090c6aU, 0x3d08363c3d0e96aeU, 0x3cfacb003d0dbdbfU, 0x3cd4849c3cf0a109U,
  0x3cc438e23cc059c4U, 0x3cd2a6633ccf68c2U, 0x3da164533cbab6f0U, 0x3d8f70733d9f8126U,
  0x3d82ce8c3d804568U, 0x3d8a49dd3d884a3eU, 0x3c96da6b3d87339aU, 0x3ca3a8633cb6fbccU,
  0x3c974b563c96a4b4U, 0x3c8fb2d43c9166efU, 0x3ba9a0183c96e838U, 0x3b90b3ff3baf7b47U,
  0x3b5cc2553b8fa039U, 0x3b655b1e3ba1e294U, 0x3b7ab20d3b5760ceU, 0xbb04700abb263d9dU,
  0xbb32ba53bae57ad2U, 0xbb07ae18baee980bU, 0x3cb7ba8ebb451c49U, 0x3cbd33ca3cd0bb3aU,
  0x3ca68d913cac35fdU, 0x3ca985403caa374fU, 0x3c7bcc583cb3cd05U, 0x3c9356653c9f9e71U,
  0x3c894f293c849652U, 0x3c85a0b33c8437e1U, 0x3b8b70f73c8643efU, 0xba9be4e9bb21e4f9U,
  0xbb278410bac0d2a0U, 0xbae1f92abad7daccU, 0x3c04fb5dbb24d9b6U, 0x3b347ddd3bc40f4bU,
  0x3bbad3383b867680U, 0x3baad9d73bcb2994U, 0x3cfca4383b81d95eU, 0x3cdc0ccf3ce5ac95U,
  0x3cc934db3cc178d2U, 0x3cce78613cd4c126U, 0x3d2b1ba93cb9e8fdU, 0x3d22e2b33d2b4109U,
  0x3d074d3f3d05f820U, 0x3d06fc213d01b8d3U, 0x3cd86c5b3d0f3e2dU, 0x3cb628943cc5dedfU,
  0x3cbe60b43ca3f54eU, 0x3caf56073cc8f0edU, 0x3cfddfdc3c9e5fecU, 0x3cdb7dd13ce61440U,
  0x3cc9c9a73cc01206U, 0x3cce47c83cd45a6fU, 0x3d2b36d53cb9b585U, 0x3d20bfd73d2c1a6dU,
  0x3d06b3a33d064319U, 0x3d0544e23d0134f7U, 0x3ba6a1533d0ed046U, 0x3a17a0e43a83df28U,
  0x3a5b5ef4baa6ec4bU, 0xba82a531ba60b5ebU, 0x3c4bb50ababef3b8U, 0x3c4c2f7c3c6c3aaeU,
  0x3c2700ba3c3e4edeU, 0x3c45a9543c2eceb3U, 0xbb87d04e3c2c6284U, 0xbc0840dfbc07465aU,
  0xbbdf1b0cbbecfefbU, 0xbc03c271bbf0a19dU, 0x3cd9a446bc1228fdU, 0x3cb554b73cc92793U,
  0x3cbfc7043ca38b26U, 0x3cb05e2a3cc8577aU, 0x3d40c53c3c9e2d3cU, 0x3d1e002c3d321152U,
  0x3d12e15f3d0a477eU, 0x3d11b04e3d13e359U, 0x3cfc06723d0efd04U, 0x3cd7b94e3cf1ee29U,
  0x3cc7a8343cbecf4fU, 0x3cd28e0c3ccee00fU, 0xbb878ef13cbd2156U, 0xbc04accbbc032760U,
  0xbbdadb62bbe9d4d7U, 0xbbfb4ea8bbec8f7dU, 0x3cb7a95bbc0dad46U, 0x3cbbad713cd10e03U,
  0x3caaff133caa64b8U, 0x3cab80c63cabbfbaU, 0x3bcf7f2e3cb22ef0U, 0x3bc4bea23bb2cedaU,
  0x3ba5b7c63bd0815bU, 0x3bb42b1a3bcbe9f3U, 0x3cd2002a3b9f4c59U, 0x3cae83093cba49bbU,
  0x3ca3c4743c9a4dcaU, 0x3ca6d0f03cad1933U, 0x3b6b0cd23c954a21U, 0xbb472c44bb506aa6U,
  0xbb37360bbb243bf7U, 0xbb473c36bb1e0403U, 0x3cfc6fa0bb52e9fcU, 0x3cdab93f3ce690adU,
  0x3ccbb9dd3cc0e946U, 0x3ccf0a303cd42714U, 0x3b8c7c623cbaea70U, 0x3b56e6813b899fb0U,
  0x3b7f58ca3b8703a2U, 0x3b39cde63b54ae3bU, 0x3c7cda623b789cecU, 0x3c924fd03c9af028U,
  0x3c84d2483c821e4aU, 0x3c83c45f3c7dca92U, 0x3d25ea933c8418f7U, 0x3d1c60ad3d2e0ef0U,
  0x3d0f73a13d080565U, 0x3d07864c3d1075f1U, 0x3d2599593d0fc7a1U, 0x3d1b4bb03d2d972fU,
  0x3d0e2b743d083dbcU, 0x3d06010f3d10e087U, 0x3cd222be3d0cfdc6U, 0x3cabe6003cb76b7fU,
  0x3ca331953c99c0e8U, 0x3ca47aff3caab964U, 0x3d2c69fa3c93e93dU, 0x3d15bd3d3d249b20U,
  0x3d0c1f343d07cd5aU, 0x3d0e74b03d100a5cU, 0x3cfd42063d08a1bfU, 0x3cd7b94e3ce5ff84U,
  0x3ccaa8e83cc01206U, 0x3ccf227d3cd1f26fU, 0x3ca884403cb94e97U, 0x3ca038d33caba29bU,
  0x3c854c6b3c80102bU, 0x3c781e843c81a782U, 0x3c1b73773c8189f4U, 0x3b9a8b1a3bdba640U,
  0x3b9f80713b6be1c2U, 0x3b3793383bbb0ec7U, 0x3cefef6c3b640c85U, 0x3cfbe1953d08b7d1U,
  0x3cdbbc5b3ce611a1U, 0x3ce24a103cd4e6c1U, 0x3ce607813cedc5caU, 0x3ce35bc33cfb967fU,
  0x3cc32ab33cc2d9eeU, 0x3cbc8f053cbd220bU, 0x3b83593b3cc9fc7dU, 0x3aeee09a3b5c3439U,
  0x3b50f3e63b259b05U, 0x3b1e53cb3b07c5d7U, 0x3cd7d0713aeec92bU, 0x3cb4c7823cc88374U,
  0x3cc067b23ca4c9aeU, 0x3cb0d6433cc9ac85U, 0x3bdb164b3c9e5fecU, 0x3ad5d6e03b89f0c6U,
  0x3b9101973b309118U, 0x3b87b8483ba463e8U, 0x3b9732c23b5768a5U, 0x3b5c5dd53b8ff5deU,
  0x3b8b19473b881decU, 0x3b407e503b67077aU, 0x3c4d459a3b7d5cdbU, 0x3c4d42cb3c6afc41U,
  0x3c22722b3c3dc5e6U, 0x3c49ab3c3c313e2dU, 0x3b7dd3673c2e497fU, 0x3b60318c3b85d2d4U,
  0x3b56a6e63b7e9947U, 0x3b2deafa3b28b3d1U, 0x3da1cd053b60e349U, 0x3d8f847f3d9f4b01U,
  0x3d8232d83d80e251U, 0x3d8afe973d87e599U, 0x3c03cb6e3d86f4dbU, 0x3b2e7d1a3bb7a5d5U,
  0x3bb1a57e3b7fb34dU, 0x3ba7db3d3bbc1cf4U, 0x3bef9b403b7bc780U, 0x3ba3996a3b9b0ef2U,
  0x3b9564203b666182U, 0x3b48ac043b827893U, 0x3d241e843b65a135U, 0x3d1a2dab3d2e2f9bU,
  0x3d0ace913d07ba4aU, 0x3d0658e93d0e7c12U, 0x3d9a6a2d3d0ffea2U, 0x3d8b4cd53d9baf12U,
  0x3d789c2f3d7f3c7aU, 0x3d87419a3d817c8eU, 0x3d24e4e83d855dd2U, 0x3d192b823d2c254cU,
  0x3d0706d63d06305aU, 0x3d039abf3d0a4c76U, 0x3cfaa7f53d0c9026U, 0x3cd689e73cf1ee29U,
  0x3cc6ee583cc0a184U, 0x3cd2d7103cd013acU, 0x3c98ea0a3cbb84faU, 0x3ca5b8993cb843e7U,
  0x3c9943693c96eb96U, 0x3c90e9d63c908b18U, 0x3b770b443c98e60bU, 0xbb17d4bcbb259eaeU,
  0xbb420acabaf040edU, 0xbb19f68abb009864U, 0x3c461a85bb4b3f3dU, 0x3c2a01283c2efed6U,
  0x3c18f8be3c1d43f1U, 0x3c2246b53c20ba2cU, 0x3c45311e3c0cf42dU, 0x3c4849e83c691ec0U,
  0x3c25cb253c40b76eU, 0x3c48f0a53c2d450fU, 0x3cd164943c2a1a7aU, 0x3cade4883cb94080U,
  0x3ca401a93c9b67acU, 0x3ca5e1b23cae05b4U, 0x3d41d7ff3c94e547U, 0x3d1f39c73d321152U,
  0x3d11ae563d0a0f7aU, 0x3d1119ac3d13941aU, 0x3c9289453d0e59c5U, 0x3ca213ab3cb843e7U,
  0x3c99b21b3c9616f8U, 0x3c8ce5ac3c8faf51U, 0x3cebb2173c97b415U, 0x3cfcf14d3d0901feU,
  0x3cd7a8c53ce2e86cU, 0x3cde0c5d3cd06011U, 0x3cabfea03cecefe3U, 0x3ca3eecc3caa706cU,
  0x3c8936b33c81b506U, 0x3c7760a23c85347bU, 0x3b3d36e93c83b422U, 0x3b1820793b4d0b3cU,
  0x3b0579773b4682c5U, 0x3b0bc84f3ac03822U, 0x3cb89a2a3b2cd49bU, 0x3cbc299f3cd0a688U,
  0x3ca6b2a23ca8ff18U, 0x3caaefba3caabfc7U, 0x3d24b7cf3cb49c33U, 0x3d197e783d2cde31U,
  0x3d062d483d04cc6eU, 0x3d04e0913d07acf1U, 0x3cfc3b093d0e7de1U, 0x3cd9e2dd3ce475abU,
  0x3cc98ba63cc01206U, 0x3ccdfee53cd3f3bbU, 0x3bdc23763cb9b585U, 0x3b833f853b98341cU,
  0x3b8eb8173b60e1b8U, 0x3b2af2853b56c6e0U, 0x3cb5d55b3b58fcf9U, 0x3c9a6b053ca44bf1U,
  0x3c91f0773c965136U, 0x3c935ab13c9b7828U, 0x3c80ffbf3c8e3626U, 0x3c9563d13ca17220U,
  0x3c8540343c875573U, 0x3c8171703c7f1abfU, 0x3c9a2d993c861175U, 0x3ca361fd3cbaab82U,
  0x3c9999813c989511U, 0x3c9101c43c9629aeU, 0x3c3bb6793c974e23U, 0x3be447f43c000b87U,
  0x3b91f5963b8066abU, 0x3b47eda53b6ccc83U, 0x3c469fe83b65a135U, 0x3c2d58e43c30888aU,
  0x3c18526f3c20fba4U, 0x3c22a34d3c201689U, 0x3d2765da3c0d54b4U, 0x3d1bba753d2cfed5U,
  0x3d0f66c13d09ee11U, 0x3d067e923d0fa9bdU, 0x3cb047de3d0ffea2U, 0x3cbd33ca3cc9248dU,
  0x3ca50eab3cad7855U, 0x3ca7a2423ca3186cU, 0x3b5b6a273cb12c53U, 0xbb5b9685bb5fe6edU,
  0xbb3def36bb38a28aU, 0xbb52e6fabb274c75U, 0x3bb48265bb60b447U, 0x3b8ec0d33b839b7cU,
  0x3b81017c3b581638U, 0x3b5909e93b3112a6U, 0x3bca9fb43b3b025aU, 0x3bc10baa3bb8dd6fU,
  0x3ba81a333bceeed6U, 0x3bb760fd3bc7dd3eU, 0x3d5d20e93ba185b7U, 0x3d53815d3d644919U,
  0x3d34bd463d339b8fU, 0x3d330b3f3d30327dU, 0x3d2cfbf63d3b5c7bU, 0x3d20e4e43d2e19d4U,
  0x3d06fa093d07cd10U, 0x3d072e5d3d00dd16U, 0x3c308a933d1035a6U, 0x3bd4d6353be25a62U,
  0x3b6823643b592f98U, 0x3b2a346c3b4258a9U, 0x3bf0e7ea3b52abedU, 0x3bf3cb293c0cf97aU,
  0x3b942c6b3be2db25U, 0x3bb3f03b3bddb3d5U, 0x3c1998f73be08653U, 0x3b795b723bd30957U,
  0x3ba3e45f3b4d1983U, 0x3b31a1b33bb3253fU, 0x3ba9826c3b5a9158U, 0x3960accc3b1b3745U,
  0x3aed6bf2377535d4U, 0xb9fc32743b1ba12cU, 0x3c459524b9239d8fU, 0x3c47c05b3c65db83U,
  0x3c20f5733c3a07a1U, 0x3c4836163c2f3120U, 0x3d9a6f1e3c2c6284U, 0x3d8b5bca3d9b3770U,
  0x3d798c6a3d7ff87dU, 0x3d87a26f3d816e4eU, 0x3bd044323d853e92U, 0x3bc4bea23bb5d609U,
  0x3bad9b5a3bd4b31bU, 0x3bb2629c3bc79c75U, 0x3ceb26283b9e8e99U, 0x3ce6a8b93cfecad7U,
  0x3cc6c68a3cc224fcU, 0x3cbde3d33cc015cbU, 0x3b4bca0b3cc993a4U, 0x3a5014763b1e5dc0U,
  0x3b248be73afc68acU, 0x3aba3f053a9685bbU, 0x3eae1d493ad28fddU, 0xbfca3a6abf8a7969U,
  0x93009300020100U, 0x100U, 0x3f8000003f800000U, 0x100000002U,
  0x4040000040400000U, 0x4040000040400000U, 0x4040000040400000U,
};


ai_handle g_clf_svc_weights_table[1 + 2] = {
  AI_HANDLE_PTR(AI_MAGIC_MARKER),
  AI_HANDLE_PTR(s_clf_svc_weights_array_u64),
  AI_HANDLE_PTR(AI_MAGIC_MARKER),
};

